#include "magic_wand_model_data.h"


// We need to keep the data array aligned on some architectures.

#ifdef __has_attribute

#define HAVE_ATTRIBUTE(x) __has_attribute(x)

#else

#define HAVE_ATTRIBUTE(x) 0

#endif

#if HAVE_ATTRIBUTE(aligned) || (defined(__GNUC__) && !defined(__clang__))

#define DATA_ALIGN_ATTRIBUTE __attribute__((aligned(4)))

#else

#define DATA_ALIGN_ATTRIBUTE

#endif


const unsigned char g_magic_wand_model_data[] DATA_ALIGN_ATTRIBUTE = {


  0x08, 0x00, 0x00, 0x00, 0x54, 0x46, 0x4c, 0x33, 0x62, 0xff, 0xff, 0xff,
  0x03, 0x00, 0x00, 0x00, 0x10, 0x00, 0x00, 0x00, 0x24, 0x00, 0x00, 0x00,
  0x78, 0x00, 0x00, 0x00, 0x24, 0x00, 0x00, 0x00, 0x05, 0x00, 0x00, 0x00,
  0x78, 0x05, 0x00, 0x00, 0xb0, 0x04, 0x00, 0x00, 0xe0, 0x02, 0x00, 0x00,
  0x60, 0x02, 0x00, 0x00, 0x54, 0x01, 0x00, 0x00, 0x01, 0x00, 0x00, 0x00,
  0x78, 0x00, 0x00, 0x00, 0x13, 0x00, 0x00, 0x00, 0xd4, 0x2f, 0x00, 0x00,
  0xd0, 0x2f, 0x00, 0x00, 0xdc, 0x2e, 0x00, 0x00, 0x68, 0x2e, 0x00, 0x00,
  0xfc, 0x2d, 0x00, 0x00, 0xac, 0x11, 0x00, 0x00, 0x98, 0x10, 0x00, 0x00,
  0xbc, 0x0e, 0x00, 0x00, 0x60, 0x06, 0x00, 0x00, 0xfc, 0x05, 0x00, 0x00,
  0x78, 0x05, 0x00, 0x00, 0xa8, 0x2f, 0x00, 0x00, 0xa4, 0x2f, 0x00, 0x00,
  0xa0, 0x2f, 0x00, 0x00, 0x9c, 0x2f, 0x00, 0x00, 0x98, 0x2f, 0x00, 0x00,
  0x94, 0x2f, 0x00, 0x00, 0x90, 0x2f, 0x00, 0x00, 0x8c, 0x2f, 0x00, 0x00,
  0x0f, 0x00, 0x00, 0x00, 0x4d, 0x4c, 0x49, 0x52, 0x20, 0x43, 0x6f, 0x6e,
  0x76, 0x65, 0x72, 0x74, 0x65, 0x64, 0x2e, 0x00, 0x00, 0x00, 0x0e, 0x00,
  0x18, 0x00, 0x04, 0x00, 0x08, 0x00, 0x0c, 0x00, 0x10, 0x00, 0x14, 0x00,
  0x0e, 0x00, 0x00, 0x00, 0x14, 0x00, 0x00, 0x00, 0x5c, 0x00, 0x00, 0x00,
  0x60, 0x00, 0x00, 0x00, 0x64, 0x00, 0x00, 0x00, 0x84, 0x00, 0x00, 0x00,
  0x12, 0x00, 0x00, 0x00, 0x04, 0x2f, 0x00, 0x00, 0xa0, 0x2e, 0x00, 0x00,
  0xf8, 0x2d, 0x00, 0x00, 0x98, 0x2d, 0x00, 0x00, 0x30, 0x2d, 0x00, 0x00,
  0xdc, 0x10, 0x00, 0x00, 0xc0, 0x0f, 0x00, 0x00, 0xe4, 0x0d, 0x00, 0x00,
  0xa0, 0x05, 0x00, 0x00, 0x3c, 0x05, 0x00, 0x00, 0xb0, 0x04, 0x00, 0x00,
  0xe8, 0x03, 0x00, 0x00, 0x38, 0x03, 0x00, 0x00, 0xa4, 0x02, 0x00, 0x00,
  0x10, 0x02, 0x00, 0x00, 0x90, 0x01, 0x00, 0x00, 0xfc, 0x00, 0x00, 0x00,
  0x80, 0x00, 0x00, 0x00, 0x01, 0x00, 0x00, 0x00, 0x00, 0x00, 0x00, 0x00,
  0x01, 0x00, 0x00, 0x00, 0x11, 0x00, 0x00, 0x00, 0x08, 0x00, 0x00, 0x00,
  0x1c, 0x04, 0x00, 0x00, 0x58, 0x03, 0x00, 0x00, 0xc8, 0x02, 0x00, 0x00,
  0x24, 0x02, 0x00, 0x00, 0xac, 0x01, 0x00, 0x00, 0x10, 0x01, 0x00, 0x00,
  0x94, 0x00, 0x00, 0x00, 0x10, 0x00, 0x00, 0x00, 0x04, 0x00, 0x00, 0x00,
  0x6d, 0x61, 0x69, 0x6e, 0x00, 0x00, 0x00, 0x00, 0x8e, 0xff, 0xff, 0xff,
  0x00, 0x00, 0x00, 0x09, 0x04, 0x00, 0x00, 0x00, 0x1c, 0x00, 0x00, 0x00,
  0x10, 0x00, 0x00, 0x00, 0x04, 0x00, 0x00, 0x00, 0x4e, 0xd2, 0xff, 0xff,
  0x00, 0x00, 0x80, 0x3f, 0x01, 0x00, 0x00, 0x00, 0x11, 0x00, 0x00, 0x00,
  0x01, 0x00, 0x00, 0x00, 0x10, 0x00, 0x00, 0x00, 0xf6, 0xfb, 0xff, 0xff,
  0x00, 0x00, 0x00, 0x19, 0x01, 0x00, 0x00, 0x00, 0xce, 0xd1, 0xff, 0xff,
  0x10, 0x00, 0x00, 0x00, 0x12, 0x00, 0x00, 0x00, 0x14, 0x00, 0x00, 0x00,
  0x20, 0x00, 0x00, 0x00, 0x02, 0x00, 0x00, 0x00, 0x01, 0x00, 0x00, 0x00,
  0x03, 0x00, 0x00, 0x00, 0x08, 0x00, 0x00, 0x00, 0x49, 0x64, 0x65, 0x6e,
  0x74, 0x69, 0x74, 0x79, 0x00, 0x00, 0x00, 0x00, 0x08, 0xd2, 0xff, 0xff,
  0x00, 0x00, 0x0e, 0x00, 0x18, 0x00, 0x08, 0x00, 0x0c, 0x00, 0x10, 0x00,
  0x07, 0x00, 0x14, 0x00, 0x0e, 0x00, 0x00, 0x00, 0x00, 0x00, 0x00, 0x08,
  0x03, 0x00, 0x00, 0x00, 0x18, 0x00, 0x00, 0x00, 0x0c, 0x00, 0x00, 0x00,
  0x04, 0x00, 0x00, 0x00, 0xdc, 0xd1, 0xff, 0xff, 0x01, 0x00, 0x00, 0x00,
  0x10, 0x00, 0x00, 0x00, 0x03, 0x00, 0x00, 0x00, 0x0f, 0x00, 0x00, 0x00,
  0x05, 0x00, 0x00, 0x00, 0x02, 0x00, 0x00, 0x00, 0x46, 0xd2, 0xff, 0xff,
  0x10, 0x00, 0x00, 0x00, 0x11, 0x00, 0x00, 0x00, 0x14, 0x00, 0x00, 0x00,
  0x30, 0x00, 0x00, 0x00, 0x02, 0x00, 0x00, 0x00, 0x01, 0x00, 0x00, 0x00,
  0x03, 0x00, 0x00, 0x00, 0x1a, 0x00, 0x00, 0x00, 0x73, 0x65, 0x71, 0x75,
  0x65, 0x6e, 0x74, 0x69, 0x61, 0x6c, 0x2f, 0x64, 0x65, 0x6e, 0x73, 0x65,
  0x5f, 0x31, 0x2f, 0x42, 0x69, 0x61, 0x73, 0x41, 0x64, 0x64, 0x00, 0x00,
  0x38, 0xd2, 0xff, 0xff, 0xd6, 0xfd, 0xff, 0xff, 0x00, 0x00, 0x00, 0x08,
  0x03, 0x00, 0x00, 0x00, 0x24, 0x00, 0x00, 0x00, 0x18, 0x00, 0x00, 0x00,
  0x0c, 0x00, 0x00, 0x00, 0x00, 0x00, 0x06, 0x00, 0x08, 0x00, 0x07, 0x00,
  0x06, 0x00, 0x00, 0x00, 0x00, 0x00, 0x00, 0x01, 0x01, 0x00, 0x00, 0x00,
  0x0f, 0x00, 0x00, 0x00, 0x03, 0x00, 0x00, 0x00, 0x0e, 0x00, 0x00, 0x00,
  0x04, 0x00, 0x00, 0x00, 0x01, 0x00, 0x00, 0x00, 0xfe, 0xfc, 0xff, 0xff,
  0x00, 0x00, 0x00, 0x09, 0x01, 0x00, 0x00, 0x00, 0xd6, 0xd2, 0xff, 0xff,
  0x10, 0x00, 0x00, 0x00, 0x10, 0x00, 0x00, 0x00, 0x14, 0x00, 0x00, 0x00,
  0x2c, 0x00, 0x00, 0x00, 0x02, 0x00, 0x00, 0x00, 0x01, 0x00, 0x00, 0x00,
  0x10, 0x00, 0x00, 0x00, 0x15, 0x00, 0x00, 0x00, 0x73, 0x65, 0x71, 0x75,
  0x65, 0x6e, 0x74, 0x69, 0x61, 0x6c, 0x2f, 0x64, 0x65, 0x6e, 0x73, 0x65,
  0x2f, 0x52, 0x65, 0x6c, 0x75, 0x00, 0x00, 0x00, 0x1c, 0xd3, 0xff, 0xff,
  0x00, 0x00, 0x0a, 0x00, 0x10, 0x00, 0x04, 0x00, 0x08, 0x00, 0x0c, 0x00,
  0x0a, 0x00, 0x00, 0x00, 0x02, 0x00, 0x00, 0x00, 0x10, 0x00, 0x00, 0x00,
  0x04, 0x00, 0x00, 0x00, 0x01, 0x00, 0x00, 0x00, 0x0e, 0x00, 0x00, 0x00,
  0x02, 0x00, 0x00, 0x00, 0x0d, 0x00, 0x00, 0x00, 0x03, 0x00, 0x00, 0x00,
  0x7a, 0xfd, 0xff, 0xff, 0x00, 0x00, 0x00, 0x16, 0x01, 0x00, 0x00, 0x00,
  0x52, 0xd3, 0xff, 0xff, 0x10, 0x00, 0x00, 0x00, 0x0f, 0x00, 0x00, 0x00,
  0x14, 0x00, 0x00, 0x00, 0x30, 0x00, 0x00, 0x00, 0x02, 0x00, 0x00, 0x00,
  0x01, 0x00, 0x00, 0x00, 0x70, 0x00, 0x00, 0x00, 0x1a, 0x00, 0x00, 0x00,
  0x73, 0x65, 0x71, 0x75, 0x65, 0x6e, 0x74, 0x69, 0x61, 0x6c, 0x2f, 0x66,
  0x6c, 0x61, 0x74, 0x74, 0x65, 0x6e, 0x2f, 0x52, 0x65, 0x73, 0x68, 0x61,
  0x70, 0x65, 0x00, 0x00, 0x44, 0xd3, 0xff, 0xff, 0xe2, 0xfe, 0xff, 0xff,
  0x00, 0x00, 0x00, 0x05, 0x01, 0x00, 0x00, 0x00, 0x38, 0x00, 0x00, 0x00,
  0x2c, 0x00, 0x00, 0x00, 0x14, 0x00, 0x00, 0x00, 0x00, 0x00, 0x0e, 0x00,
  0x14, 0x00, 0x00, 0x00, 0x10, 0x00, 0x0c, 0x00, 0x08, 0x00, 0x04, 0x00,
  0x0e, 0x00, 0x00, 0x00, 0x03, 0x00, 0x00, 0x00, 0x01, 0x00, 0x00, 0x00,
  0x03, 0x00, 0x00, 0x00, 0x01, 0x00, 0x00, 0x00, 0x01, 0x00, 0x00, 0x00,
  0x0d, 0x00, 0x00, 0x00, 0x01, 0x00, 0x00, 0x00, 0x0c, 0x00, 0x00, 0x00,
  0xe2, 0xd3, 0xff, 0xff, 0x10, 0x00, 0x00, 0x00, 0x0e, 0x00, 0x00, 0x00,
  0x1c, 0x00, 0x00, 0x00, 0x40, 0x00, 0x00, 0x00, 0x04, 0x00, 0x00, 0x00,
  0x01, 0x00, 0x00, 0x00, 0x07, 0x00, 0x00, 0x00, 0x01, 0x00, 0x00, 0x00,
  0x10, 0x00, 0x00, 0x00, 0x22, 0x00, 0x00, 0x00, 0x73, 0x65, 0x71, 0x75,
  0x65, 0x6e, 0x74, 0x69, 0x61, 0x6c, 0x2f, 0x6d, 0x61, 0x78, 0x5f, 0x70,
  0x6f, 0x6f, 0x6c, 0x69, 0x6e, 0x67, 0x32, 0x64, 0x5f, 0x31, 0x2f, 0x4d,
  0x61, 0x78, 0x50, 0x6f, 0x6f, 0x6c, 0x00, 0x00, 0xe4, 0xd3, 0xff, 0xff,
  0xc2, 0xfe, 0xff, 0xff, 0x00, 0x00, 0x00, 0x01, 0x24, 0x00, 0x00, 0x00,
  0x18, 0x00, 0x00, 0x00, 0x04, 0x00, 0x00, 0x00, 0xb4, 0xfe, 0xff, 0xff,
  0x01, 0x00, 0x00, 0x00, 0x01, 0x00, 0x00, 0x00, 0x00, 0x00, 0x00, 0x01,
  0x01, 0x00, 0x00, 0x00, 0x0c, 0x00, 0x00, 0x00, 0x03, 0x00, 0x00, 0x00,
  0x0b, 0x00, 0x00, 0x00, 0x07, 0x00, 0x00, 0x00, 0x09, 0x00, 0x00, 0x00,
  0x72, 0xd4, 0xff, 0xff, 0x10, 0x00, 0x00, 0x00, 0x0d, 0x00, 0x00, 0x00,
  0x1c, 0x00, 0x00, 0x00, 0x2c, 0x00, 0x00, 0x00, 0x04, 0x00, 0x00, 0x00,
  0x01, 0x00, 0x00, 0x00, 0x15, 0x00, 0x00, 0x00, 0x01, 0x00, 0x00, 0x00,
  0x10, 0x00, 0x00, 0x00, 0x0c, 0x00, 0x00, 0x00, 0x74, 0x66, 0x6c, 0x2e,
  0x63, 0x6f, 0x6e, 0x76, 0x5f, 0x32, 0x64, 0x31, 0x00, 0x00, 0x00, 0x00,
  0xb8, 0xd4, 0xff, 0xff, 0x00, 0x00, 0x0e, 0x00, 0x1a, 0x00, 0x08, 0x00,
  0x0c, 0x00, 0x10, 0x00, 0x07, 0x00, 0x14, 0x00, 0x0e, 0x00, 0x00, 0x00,
  0x00, 0x00, 0x00, 0x05, 0x01, 0x00, 0x00, 0x00, 0x3c, 0x00, 0x00, 0x00,
  0x30, 0x00, 0x00, 0x00, 0x14, 0x00, 0x00, 0x00, 0x00, 0x00, 0x0e, 0x00,
  0x18, 0x00, 0x17, 0x00, 0x10, 0x00, 0x0c, 0x00, 0x08, 0x00, 0x04, 0x00,
  0x0e, 0x00, 0x00, 0x00, 0x03, 0x00, 0x00, 0x00, 0x03, 0x00, 0x00, 0x00,
  0x03, 0x00, 0x00, 0x00, 0x03, 0x00, 0x00, 0x00, 0x00, 0x00, 0x00, 0x01,
  0x01, 0x00, 0x00, 0x00, 0x0b, 0x00, 0x00, 0x00, 0x01, 0x00, 0x00, 0x00,
  0x0a, 0x00, 0x00, 0x00, 0x46, 0xff, 0xff, 0xff, 0x00, 0x00, 0x00, 0x11,
  0x01, 0x00, 0x00, 0x00, 0x1e, 0xd5, 0xff, 0xff, 0x10, 0x00, 0x00, 0x00,
  0x0c, 0x00, 0x00, 0x00, 0x1c, 0x00, 0x00, 0x00, 0x40, 0x00, 0x00, 0x00,
  0x04, 0x00, 0x00, 0x00, 0x01, 0x00, 0x00, 0x00, 0x15, 0x00, 0x00, 0x00,
  0x01, 0x00, 0x00, 0x00, 0x08, 0x00, 0x00, 0x00, 0x20, 0x00, 0x00, 0x00,
  0x73, 0x65, 0x71, 0x75, 0x65, 0x6e, 0x74, 0x69, 0x61, 0x6c, 0x2f, 0x6d,
  0x61, 0x78, 0x5f, 0x70, 0x6f, 0x6f, 0x6c, 0x69, 0x6e, 0x67, 0x32, 0x64,
  0x2f, 0x4d, 0x61, 0x78, 0x50, 0x6f, 0x6f, 0x6c, 0x00, 0x00, 0x00, 0x00,
  0x78, 0xd5, 0xff, 0xff, 0x00, 0x00, 0x0e, 0x00, 0x14, 0x00, 0x00, 0x00,
  0x08, 0x00, 0x0c, 0x00, 0x07, 0x00, 0x10, 0x00, 0x0e, 0x00, 0x00, 0x00,
  0x00, 0x00, 0x00, 0x01, 0x30, 0x00, 0x00, 0x00, 0x24, 0x00, 0x00, 0x00,
  0x10, 0x00, 0x00, 0x00, 0x0c, 0x00, 0x10, 0x00, 0x00, 0x00, 0x04, 0x00,
  0x08, 0x00, 0x0f, 0x00, 0x0c, 0x00, 0x00, 0x00, 0x01, 0x00, 0x00, 0x00,
  0x01, 0x00, 0x00, 0x00, 0x00, 0x00, 0x00, 0x01, 0x01, 0x00, 0x00, 0x00,
  0x0a, 0x00, 0x00, 0x00, 0x03, 0x00, 0x00, 0x00, 0x00, 0x00, 0x00, 0x00,
  0x06, 0x00, 0x00, 0x00, 0x08, 0x00, 0x00, 0x00, 0x00, 0x00, 0x0a, 0x00,
  0x0c, 0x00, 0x07, 0x00, 0x00, 0x00, 0x08, 0x00, 0x0a, 0x00, 0x00, 0x00,
  0x00, 0x00, 0x00, 0x03, 0x01, 0x00, 0x00, 0x00, 0xe2, 0xd5, 0xff, 0xff,
  0x10, 0x00, 0x00, 0x00, 0x0b, 0x00, 0x00, 0x00, 0x1c, 0x00, 0x00, 0x00,
  0x28, 0x00, 0x00, 0x00, 0x04, 0x00, 0x00, 0x00, 0x01, 0x00, 0x00, 0x00,
  0x40, 0x00, 0x00, 0x00, 0x03, 0x00, 0x00, 0x00, 0x08, 0x00, 0x00, 0x00,
  0x0b, 0x00, 0x00, 0x00, 0x74, 0x66, 0x6c, 0x2e, 0x63, 0x6f, 0x6e, 0x76,
  0x5f, 0x32, 0x64, 0x00, 0xcc, 0xd5, 0xff, 0xff, 0xc2, 0xd6, 0xff, 0xff,
  0x04, 0x00, 0x00, 0x00, 0x40, 0x00, 0x00, 0x00, 0xbf, 0xe6, 0xa8, 0xbf,
  0x53, 0xaa, 0xaa, 0xbf, 0x87, 0xe3, 0x4f, 0xbf, 0xef, 0x01, 0x29, 0x3f,
  0x51, 0x4b, 0x88, 0xbf, 0x1c, 0x2c, 0xad, 0xbf, 0xaf, 0x3c, 0xfa, 0x3e,
  0xc3, 0xcb, 0x19, 0xbf, 0xcb, 0xe1, 0x96, 0xbf, 0x8e, 0x89, 0x16, 0xbd,
  0x35, 0x41, 0xb6, 0xbf, 0x7d, 0xb3, 0xcf, 0xbf, 0x33, 0x65, 0xbc, 0x3b,
  0x87, 0x0d, 0x13, 0x3e, 0x81, 0x08, 0x1d, 0x3e, 0xf5, 0xcc, 0x4e, 0xbc,
  0x6a, 0xd6, 0xff, 0xff, 0x10, 0x00, 0x00, 0x00, 0x0a, 0x00, 0x00, 0x00,
  0x10, 0x00, 0x00, 0x00, 0x20, 0x00, 0x00, 0x00, 0x01, 0x00, 0x00, 0x00,
  0x10, 0x00, 0x00, 0x00, 0x0d, 0x00, 0x00, 0x00, 0x73, 0x74, 0x64, 0x2e,
  0x63, 0x6f, 0x6e, 0x73, 0x74, 0x61, 0x6e, 0x74, 0x31, 0x00, 0x00, 0x00,
  0x4c, 0xd6, 0xff, 0xff, 0x42, 0xd7, 0xff, 0xff, 0x04, 0x00, 0x00, 0x00,
  0x20, 0x00, 0x00, 0x00, 0x00, 0xe4, 0xa5, 0xbf, 0x6e, 0x59, 0xce, 0xbf,
  0xc9, 0xbc, 0x5f, 0xbf, 0x8a, 0x31, 0xe2, 0xbe, 0xdd, 0x02, 0xf2, 0xbd,
  0x09, 0xe7, 0x09, 0xbf, 0x62, 0x61, 0x85, 0xbe, 0xa0, 0x0e, 0x2a, 0xc0,
  0xca, 0xd6, 0xff, 0xff, 0x10, 0x00, 0x00, 0x00, 0x09, 0x00, 0x00, 0x00,
  0x10, 0x00, 0x00, 0x00, 0x20, 0x00, 0x00, 0x00, 0x01, 0x00, 0x00, 0x00,
  0x08, 0x00, 0x00, 0x00, 0x0c, 0x00, 0x00, 0x00, 0x73, 0x74, 0x64, 0x2e,
  0x63, 0x6f, 0x6e, 0x73, 0x74, 0x61, 0x6e, 0x74, 0x00, 0x00, 0x00, 0x00,
  0xac, 0xd6, 0xff, 0xff, 0xa2, 0xd7, 0xff, 0xff, 0x04, 0x00, 0x00, 0x00,
  0x00, 0x08, 0x00, 0x00, 0x88, 0x90, 0x90, 0xbe, 0xfb, 0xec, 0xf5, 0xbd,
  0x62, 0x9d, 0x81, 0x3e, 0x41, 0x7b, 0xee, 0x3c, 0x54, 0xfb, 0x37, 0xbe,
  0x0d, 0x6c, 0x09, 0xbe, 0xde, 0xf2, 0x0f, 0xbe, 0x0e, 0xc3, 0xd5, 0x3e,
  0xa4, 0xc3, 0xc5, 0x3d, 0xe2, 0xc3, 0x32, 0x3e, 0x05, 0x80, 0xb0, 0xbd,
  0x25, 0x54, 0x4b, 0xbd, 0x98, 0xd9, 0x78, 0xbe, 0x20, 0xea, 0xb3, 0xbd,
  0xd3, 0x40, 0x68, 0xbe, 0xc2, 0x3c, 0xd6, 0xbd, 0x98, 0xc6, 0x1b, 0x3e,
  0x7f, 0xac, 0x8b, 0xbd, 0x4a, 0xf3, 0x3f, 0xbe, 0x8c, 0x80, 0xdb, 0xbc,
  0xe1, 0xcb, 0x0a, 0xbe, 0x7d, 0xe4, 0x7c, 0xbd, 0xa9, 0x09, 0x77, 0xbb,
  0x85, 0x7f, 0x3a, 0xbe, 0x99, 0x95, 0x9f, 0x3e, 0x58, 0xc3, 0xc9, 0xbc,
  0xd1, 0x26, 0x32, 0xbe, 0x37, 0x22, 0x20, 0xbe, 0x36, 0x21, 0xbb, 0x3b,
  0x26, 0x65, 0xa7, 0x3d, 0x04, 0x36, 0x76, 0x3d, 0x33, 0x93, 0x59, 0xbe,
  0x2a, 0x22, 0xcc, 0xbd, 0xb6, 0x5a, 0xa8, 0xbc, 0xd7, 0x09, 0xcb, 0x3e,
  0xd8, 0x28, 0x12, 0x3e, 0xaa, 0xae, 0x6c, 0xbe, 0x9c, 0x47, 0x02, 0xbe,
  0xc2, 0x1b, 0x63, 0xbe, 0x46, 0x9c, 0xc0, 0xbc, 0xc1, 0x34, 0xab, 0x3e,
  0xc9, 0x3e, 0x13, 0x3e, 0x2e, 0xfb, 0xbb, 0xbe, 0x19, 0xb9, 0xc4, 0xbd,
  0xd3, 0xb8, 0x1a, 0xbf, 0xc5, 0x41, 0xdb, 0xbe, 0xa5, 0xda, 0xbd, 0xbe,
  0x89, 0x12, 0xe1, 0x3d, 0x8a, 0x9c, 0x80, 0x3e, 0x01, 0x85, 0x8e, 0x3c,
  0x28, 0x55, 0xc8, 0xbe, 0xc7, 0x4a, 0x18, 0xbe, 0x29, 0x53, 0x99, 0xbe,
  0x6a, 0x1b, 0x3b, 0xbe, 0x2a, 0xcd, 0xcd, 0x3d, 0x16, 0x74, 0x86, 0xbe,
  0x64, 0x24, 0xdf, 0x3d, 0x10, 0xa9, 0x45, 0xbd, 0xdf, 0xf5, 0x13, 0xbe,
  0x21, 0xe0, 0x15, 0xbe, 0x0e, 0x03, 0x27, 0xbc, 0x25, 0x90, 0x8e, 0x3e,
  0x23, 0x9a, 0x8a, 0x3d, 0xaf, 0xbe, 0x16, 0xbe, 0xcd, 0x54, 0x0e, 0x3e,
  0xfd, 0xdf, 0x91, 0xbd, 0x08, 0x78, 0x12, 0xbe, 0xb0, 0xd7, 0x13, 0xbe,
  0xd3, 0xac, 0x93, 0xbd, 0x33, 0xde, 0x12, 0x3e, 0xf5, 0xda, 0xa2, 0xbb,
  0xa2, 0xb6, 0xcb, 0xbe, 0x32, 0xa0, 0x8f, 0x3e, 0x4a, 0xfa, 0xdc, 0xbc,
  0x9b, 0xd0, 0x55, 0xbb, 0x7b, 0x3f, 0x2a, 0xbd, 0xcb, 0x40, 0x3a, 0x3e,
  0x9c, 0x48, 0xd0, 0x3c, 0x36, 0x79, 0x9b, 0x3e, 0x37, 0xd7, 0xed, 0xba,
  0x40, 0x19, 0x12, 0xbe, 0x94, 0x89, 0x26, 0xbe, 0x81, 0xa0, 0x98, 0x3c,
  0xc2, 0xa9, 0xd7, 0xbc, 0x20, 0x6b, 0x14, 0xbd, 0x8d, 0x35, 0x2b, 0xbd,
  0x4b, 0x3a, 0xd7, 0xbd, 0xe1, 0x34, 0x43, 0x3d, 0x74, 0xcd, 0xa0, 0xbe,
  0xb2, 0xad, 0x9d, 0x3d, 0x77, 0x87, 0x54, 0x3e, 0xa1, 0x9f, 0x94, 0x3c,
  0x10, 0x36, 0x00, 0xbe, 0x9c, 0xc3, 0xc3, 0xbd, 0x64, 0x46, 0x58, 0xbe,
  0x49, 0x28, 0xb9, 0x3e, 0x7d, 0x7f, 0x13, 0x3d, 0x6e, 0x59, 0x54, 0x3e,
  0xf1, 0x8f, 0xfe, 0xbc, 0xb8, 0xec, 0x81, 0xbd, 0x46, 0xa6, 0xa5, 0xbc,
  0xa3, 0x3f, 0xa4, 0xbd, 0x5e, 0x02, 0x86, 0xbc, 0xcb, 0xd0, 0x39, 0x3e,
  0x24, 0x62, 0x1a, 0x3d, 0xad, 0x58, 0x5e, 0xba, 0x53, 0x19, 0x83, 0xbe,
  0x0a, 0x9e, 0x3c, 0xbe, 0x5b, 0xcf, 0x2f, 0x3e, 0x17, 0xcc, 0x95, 0xbd,
  0x96, 0x81, 0x68, 0xbb, 0xd5, 0xa6, 0x7a, 0x3d, 0x8f, 0x95, 0x5d, 0x3e,
  0xce, 0x85, 0xbf, 0x3e, 0x03, 0x21, 0xda, 0xbc, 0x3e, 0xfc, 0x61, 0xbe,
  0xde, 0xb8, 0xc0, 0x3e, 0x16, 0x89, 0x89, 0xbd, 0x64, 0x64, 0xeb, 0xbd,
  0x3e, 0x21, 0xef, 0x3d, 0xc1, 0xfd, 0x8b, 0x3e, 0xa2, 0xbf, 0x58, 0x3e,
  0x3b, 0x45, 0xa8, 0xbd, 0x25, 0x99, 0x7b, 0xbe, 0x97, 0xaf, 0xdb, 0x3d,
  0xb1, 0x23, 0x29, 0x3c, 0x8c, 0xdc, 0xe4, 0xbd, 0x30, 0x05, 0x1d, 0x3e,
  0x0e, 0x17, 0x4f, 0xbe, 0xa3, 0x18, 0x73, 0xbd, 0x0a, 0x31, 0x52, 0x3e,
  0x68, 0xc3, 0x3e, 0x3e, 0xc6, 0x46, 0x9c, 0xbe, 0x4d, 0x17, 0x94, 0x3d,
  0xeb, 0xb6, 0x0a, 0xbe, 0xec, 0x51, 0x53, 0x3d, 0x2b, 0xd6, 0x08, 0x3f,
  0x58, 0x38, 0xfd, 0x3d, 0x70, 0xf3, 0x48, 0xbe, 0x8b, 0x53, 0x12, 0x3e,
  0xdf, 0x66, 0x87, 0xbe, 0x14, 0xe9, 0x88, 0xbd, 0x8c, 0x23, 0xe4, 0xbe,
  0xf3, 0x84, 0x46, 0x3e, 0x12, 0x1d, 0x67, 0x3e, 0x10, 0x78, 0xac, 0x3e,
  0xb9, 0x86, 0xe9, 0xbe, 0xa7, 0xa5, 0x9e, 0xbe, 0x2f, 0x11, 0x51, 0xbd,
  0x63, 0x16, 0xad, 0xbe, 0xdd, 0x09, 0xdf, 0xbd, 0x11, 0x59, 0xaf, 0xbe,
  0xa7, 0x70, 0x52, 0x3e, 0xd3, 0xad, 0x5f, 0xbe, 0x6e, 0xe8, 0xf0, 0xbe,
  0x80, 0xa4, 0x8e, 0xbe, 0xcb, 0x69, 0x94, 0xbd, 0xb8, 0x5d, 0x1e, 0xbe,
  0x90, 0xa2, 0xc8, 0xb6, 0x4a, 0x48, 0x96, 0xbe, 0x1d, 0x4f, 0x96, 0xbe,
  0x30, 0xb4, 0x36, 0xbe, 0x61, 0x39, 0x84, 0xbd, 0x6e, 0x76, 0x9e, 0xbd,
  0xa3, 0xfa, 0x36, 0xbe, 0xed, 0xa4, 0x87, 0x3e, 0xa9, 0x79, 0xd5, 0xbc,
  0xb8, 0x1f, 0x42, 0x3d, 0xce, 0xb7, 0x4c, 0xbd, 0x48, 0x8e, 0x7d, 0x3e,
  0x9b, 0x46, 0xca, 0x3e, 0xe5, 0xa4, 0x5a, 0xbd, 0xec, 0xb9, 0x6c, 0xbe,
  0x35, 0x75, 0x4f, 0xbd, 0x4c, 0x1b, 0xa7, 0xbe, 0x0b, 0xb2, 0xc8, 0x3e,
  0x80, 0x23, 0xae, 0x3e, 0xb7, 0xa0, 0xee, 0x3d, 0x64, 0x50, 0x48, 0xbe,
  0xba, 0xbb, 0x56, 0xbc, 0x0c, 0xde, 0x4b, 0xbe, 0xaf, 0x1e, 0xb4, 0xbe,
  0xfa, 0x2b, 0x04, 0xbf, 0x05, 0xc0, 0x34, 0xbe, 0x02, 0x1b, 0x7c, 0x3d,
  0x25, 0x32, 0xe8, 0x3b, 0x50, 0x4f, 0xd6, 0xbe, 0x64, 0x8f, 0x59, 0xbe,
  0xc2, 0x2f, 0x1b, 0xbe, 0xf1, 0x80, 0xa3, 0xbe, 0x97, 0xb0, 0x1f, 0xbe,
  0xd4, 0x51, 0x91, 0xbe, 0x3c, 0x11, 0x8a, 0xbd, 0x70, 0xc5, 0x89, 0x3c,
  0x6d, 0x93, 0x0c, 0xbe, 0x70, 0xfe, 0x38, 0x3d, 0xff, 0xd2, 0x43, 0x3e,
  0xcb, 0xc5, 0x3a, 0xbe, 0x76, 0x89, 0x4d, 0xbe, 0x52, 0x23, 0x8c, 0xbe,
  0x41, 0x47, 0x8b, 0xbe, 0xb3, 0x3a, 0x51, 0x3d, 0x9b, 0x2c, 0xe5, 0xbd,
  0x39, 0xbb, 0x5f, 0x3d, 0x49, 0xcb, 0x08, 0x3d, 0x01, 0x80, 0x4e, 0xbe,
  0x24, 0x9f, 0xa3, 0x3d, 0x1f, 0x4e, 0x04, 0xbe, 0x52, 0xef, 0x58, 0xbe,
  0x54, 0xaa, 0x16, 0xbc, 0xc0, 0xee, 0x53, 0xbe, 0x2e, 0xeb, 0xc0, 0xbe,
  0xab, 0xc4, 0x16, 0x3e, 0x4a, 0xf1, 0x09, 0xbe, 0x70, 0xf5, 0x2f, 0xbe,
  0x0a, 0x28, 0xb4, 0xbc, 0x31, 0x15, 0xd4, 0x3b, 0xc5, 0x14, 0xbf, 0xbd,
  0x39, 0x8a, 0xc5, 0x3c, 0x5e, 0x30, 0x6a, 0xbe, 0x93, 0x22, 0x63, 0xbc,
  0xc8, 0x78, 0x98, 0xbe, 0x17, 0xef, 0x8d, 0xbe, 0x26, 0xda, 0xc2, 0xbd,
  0x4e, 0xb7, 0x6f, 0xbe, 0xbc, 0xcc, 0x93, 0xbd, 0x35, 0xac, 0x2a, 0xbe,
  0xbb, 0x58, 0x80, 0xbe, 0x61, 0x1f, 0x20, 0xbd, 0xd1, 0x21, 0x24, 0x3d,
  0xa3, 0x3f, 0x90, 0x3e, 0xe8, 0xb9, 0x99, 0x3e, 0x33, 0xe3, 0x01, 0xbc,
  0x29, 0xac, 0xab, 0xbe, 0xe3, 0xb3, 0x17, 0xbe, 0x9b, 0x98, 0x6f, 0xbe,
  0xaf, 0x90, 0xca, 0x3d, 0x5f, 0x59, 0xb5, 0xbd, 0xa5, 0xa9, 0x11, 0xbe,
  0x24, 0x8a, 0x62, 0x3d, 0x2c, 0x00, 0x02, 0x3e, 0xac, 0x40, 0xe9, 0x3c,
  0xc9, 0x48, 0x5c, 0xbe, 0xfd, 0xe8, 0xdd, 0xbe, 0x16, 0x70, 0x34, 0xbe,
  0x1c, 0xfe, 0x39, 0xba, 0xd6, 0xdd, 0x02, 0x3e, 0xe2, 0x17, 0xd1, 0xbe,
  0xb2, 0x76, 0xf1, 0x3e, 0x9a, 0x88, 0x34, 0x3e, 0xf8, 0x3b, 0xb6, 0xbe,
  0x29, 0xc0, 0xa6, 0xbe, 0x4a, 0xb3, 0xf0, 0x3d, 0x3f, 0xa8, 0x7c, 0x3d,
  0xbb, 0x51, 0xb2, 0x3e, 0x79, 0xf9, 0xab, 0x3c, 0xa1, 0x53, 0xeb, 0x3b,
  0xa9, 0xb0, 0x05, 0x3d, 0xfb, 0x87, 0x17, 0xbd, 0x32, 0xe5, 0x9d, 0xbe,
  0xdc, 0xb0, 0xec, 0x3c, 0x9b, 0xc5, 0x3e, 0x3e, 0xf9, 0x48, 0x26, 0x3e,
  0x17, 0x0f, 0x2c, 0xbe, 0x6e, 0x1d, 0x64, 0x3e, 0x25, 0x7d, 0x9e, 0x3d,
  0x40, 0xbf, 0x7d, 0x3d, 0x0c, 0xf5, 0x20, 0xbe, 0xb8, 0xfb, 0x36, 0xbe,
  0x52, 0xb0, 0x01, 0xbd, 0x9b, 0xaa, 0x0c, 0x3c, 0xbd, 0x31, 0xe2, 0x3e,
  0xbe, 0x4f, 0xbc, 0xbc, 0xdc, 0xfb, 0xc1, 0x3d, 0x2d, 0xd2, 0x18, 0xbe,
  0x03, 0x98, 0x90, 0x3d, 0xc2, 0x4c, 0x4d, 0x3d, 0xcc, 0x85, 0x9c, 0xbe,
  0x04, 0x8b, 0x7b, 0xbe, 0xe1, 0x06, 0xe8, 0x3b, 0x00, 0xb7, 0xfa, 0x3e,
  0xad, 0x85, 0x86, 0x3d, 0xe4, 0x9a, 0x74, 0xbe, 0x79, 0xad, 0x96, 0xbe,
  0x60, 0xfd, 0x6f, 0xbd, 0xfa, 0xc1, 0x0b, 0x3d, 0x07, 0x90, 0x33, 0x3e,
  0xd5, 0x3a, 0xfd, 0xbe, 0x8b, 0x70, 0x13, 0x3e, 0xd6, 0xf9, 0x8e, 0xbd,
  0x25, 0x43, 0x95, 0xbe, 0x1c, 0xd2, 0x77, 0xbe, 0xd5, 0x52, 0xb2, 0x3e,
  0x19, 0x13, 0x07, 0xbe, 0xc4, 0xdb, 0xaf, 0x3d, 0x83, 0x00, 0x30, 0xbe,
  0xe3, 0x2b, 0x4b, 0x3d, 0xd5, 0x6a, 0xa4, 0xbe, 0x6c, 0xb5, 0xfa, 0x3c,
  0x16, 0x6a, 0xe9, 0x3c, 0xd8, 0x1a, 0xe7, 0xbc, 0x9d, 0x4a, 0x2f, 0xbe,
  0x74, 0x60, 0xc1, 0x3c, 0xb1, 0x52, 0x2f, 0xbd, 0x57, 0x09, 0x0c, 0x3e,
  0x9a, 0xfa, 0x83, 0x3d, 0x10, 0x76, 0x1a, 0x3e, 0x2e, 0x3e, 0xd1, 0xbd,
  0x2c, 0x1d, 0x86, 0x3e, 0xa1, 0xd0, 0x16, 0xbe, 0xb2, 0xad, 0x55, 0xbe,
  0xe4, 0xc3, 0x4a, 0xbe, 0x11, 0xc3, 0x0a, 0xbd, 0x6e, 0x7f, 0x5c, 0xbe,
  0x2f, 0x98, 0x3e, 0xbe, 0x80, 0xd2, 0x4f, 0xbe, 0xc9, 0xaf, 0x4e, 0xbd,
  0xd0, 0xbf, 0xd8, 0xbd, 0xe8, 0x35, 0x15, 0x3e, 0x42, 0xa4, 0x94, 0xbc,
  0x2f, 0x20, 0x0d, 0xbe, 0x69, 0xf5, 0x7d, 0xbd, 0xa0, 0xf4, 0xa4, 0x3e,
  0x7c, 0xc2, 0x16, 0xbc, 0x30, 0x77, 0x54, 0xbe, 0x54, 0x2f, 0x8e, 0x3e,
  0x99, 0xde, 0x09, 0x3e, 0x29, 0xfc, 0x7a, 0x3e, 0x7d, 0xde, 0xc2, 0x3d,
  0x35, 0x72, 0xb9, 0x3c, 0x2e, 0x93, 0x2c, 0xbe, 0x83, 0x52, 0xbd, 0x3c,
  0x8e, 0x92, 0xb0, 0xbd, 0x60, 0xf3, 0x39, 0x3d, 0x69, 0x9b, 0x8c, 0xbd,
  0x19, 0x3c, 0xad, 0x3e, 0x13, 0x6a, 0x17, 0xbd, 0x1b, 0x56, 0x9d, 0x3e,
  0xf1, 0xb5, 0x02, 0xbe, 0x49, 0x4f, 0x33, 0xbd, 0x8b, 0x4a, 0xd1, 0x3d,
  0x67, 0xe4, 0x64, 0xbe, 0x3b, 0x2c, 0xa8, 0xbe, 0x13, 0xa6, 0xbe, 0xbe,
  0x79, 0x30, 0xad, 0xbb, 0xc4, 0x08, 0x45, 0xbe, 0xf0, 0x68, 0x60, 0xbe,
  0x5b, 0x5d, 0x01, 0xbe, 0x8b, 0xf3, 0x53, 0xbd, 0x9b, 0x98, 0x97, 0xbe,
  0xe2, 0x12, 0x66, 0xbe, 0x41, 0x29, 0xbb, 0xbe, 0x5a, 0x47, 0x27, 0xbe,
  0xd0, 0x73, 0x05, 0xbf, 0xea, 0x19, 0x1a, 0xbe, 0x82, 0x51, 0xb9, 0xbd,
  0x63, 0xb5, 0x1c, 0xbe, 0xc0, 0xef, 0xcb, 0xbd, 0x01, 0x04, 0xe8, 0x3b,
  0x19, 0xaf, 0xa8, 0xbe, 0x81, 0x9f, 0x3d, 0xbe, 0xd5, 0xd9, 0x68, 0xbe,
  0xe4, 0xc7, 0x38, 0x3e, 0x13, 0x53, 0x5c, 0xbd, 0x90, 0x95, 0xb1, 0xbe,
  0x89, 0x33, 0x96, 0x3d, 0xcc, 0x9b, 0x30, 0xbe, 0x23, 0xd3, 0xad, 0x3d,
  0x93, 0xe4, 0x85, 0x3d, 0xf6, 0x1f, 0xd9, 0x3e, 0xb8, 0xd9, 0x33, 0x3d,
  0xba, 0x7c, 0xaf, 0x3d, 0xce, 0xb1, 0x13, 0xbe, 0x3e, 0x22, 0x60, 0xbe,
  0xa2, 0xc2, 0x4c, 0xbe, 0x02, 0x99, 0x07, 0x3f, 0x9a, 0xe1, 0x92, 0x3e,
  0x20, 0xeb, 0x39, 0x3e, 0x9b, 0x29, 0x91, 0xbe, 0x8b, 0x3e, 0xae, 0xbd,
  0xab, 0xe7, 0xa0, 0xbe, 0x2b, 0x37, 0x92, 0xbe, 0xff, 0x07, 0xc5, 0xbe,
  0x0e, 0x5b, 0xf5, 0xbc, 0x08, 0x49, 0xea, 0xbd, 0xce, 0x4b, 0x92, 0xbb,
  0xb2, 0x0e, 0x08, 0xbe, 0x69, 0x4a, 0x56, 0x3e, 0x14, 0x81, 0xc5, 0x3d,
  0x67, 0xee, 0xaa, 0x3d, 0x0f, 0x8c, 0x16, 0x3c, 0x57, 0xca, 0x14, 0x3e,
  0x4c, 0x47, 0xbd, 0xbe, 0xa2, 0xe5, 0xd8, 0xbe, 0xa7, 0x56, 0x6c, 0xbe,
  0xd4, 0x23, 0xd7, 0xbe, 0x87, 0x60, 0xb1, 0xbd, 0x77, 0x07, 0x92, 0x3d,
  0xe5, 0xd1, 0x9a, 0xbe, 0x98, 0xf8, 0xa0, 0xbc, 0xa8, 0x40, 0x37, 0xbe,
  0x83, 0xbe, 0x47, 0xbe, 0x69, 0x43, 0xe7, 0xbd, 0x7c, 0x00, 0x21, 0xbe,
  0x93, 0x23, 0x81, 0xbb, 0x0f, 0xd7, 0x50, 0x3e, 0xd3, 0xd4, 0x5e, 0x3e,
  0x7a, 0x92, 0xd8, 0x3d, 0xf5, 0x2d, 0xa8, 0xbe, 0x89, 0x5c, 0x40, 0xbe,
  0x12, 0xa7, 0xac, 0x3c, 0xf2, 0x33, 0xcd, 0xbb, 0x19, 0xec, 0xf3, 0x3d,
  0x2c, 0x5b, 0x42, 0x3d, 0xd4, 0x4c, 0xc5, 0xbd, 0xaa, 0x17, 0xe9, 0xbc,
  0x0d, 0xec, 0x50, 0x3d, 0xa9, 0x7e, 0xc6, 0x3d, 0x06, 0x1d, 0xaf, 0x3c,
  0xd4, 0x6f, 0x33, 0x3d, 0xc4, 0x53, 0xd1, 0x3e, 0xd5, 0x7b, 0x7c, 0xbe,
  0x00, 0xef, 0x92, 0xbc, 0x98, 0x3c, 0x51, 0xbd, 0x6d, 0xe7, 0x42, 0xbe,
  0x80, 0x26, 0x14, 0x3d, 0x2b, 0xfa, 0x13, 0xbe, 0x98, 0xc2, 0x61, 0xbe,
  0x37, 0x83, 0xaa, 0x3e, 0x6d, 0x6e, 0x54, 0xbe, 0x96, 0x34, 0x23, 0x3e,
  0xcf, 0xe7, 0xb9, 0xbd, 0xc1, 0xeb, 0x02, 0xbc, 0xb6, 0x90, 0x8a, 0x3e,
  0xf1, 0x1e, 0xea, 0x3a, 0xb1, 0xb9, 0x85, 0x3d, 0x03, 0xd4, 0x4d, 0x3d,
  0x68, 0x68, 0x9f, 0xbe, 0xd6, 0x05, 0x10, 0x3c, 0x6a, 0x35, 0xf0, 0xbd,
  0x6b, 0x67, 0x59, 0xbe, 0x89, 0x4e, 0xc0, 0x3d, 0x0a, 0xe3, 0x8f, 0x3d,
  0x5d, 0x60, 0xce, 0x3c, 0xce, 0xf7, 0x72, 0x3e, 0x4a, 0x6d, 0x86, 0xbe,
  0xe2, 0xf5, 0xd2, 0x3d, 0x02, 0x59, 0x5d, 0x3d, 0x28, 0xe9, 0x18, 0xbe,
  0x46, 0xf3, 0xd5, 0xbd, 0xc2, 0x9c, 0xa4, 0xbd, 0xac, 0x2e, 0x80, 0xbe,
  0x70, 0xef, 0x23, 0x3d, 0x4f, 0x03, 0x6b, 0xbe, 0x3e, 0xcf, 0x97, 0xbd,
  0xe9, 0x56, 0x54, 0xbe, 0x98, 0x04, 0xa0, 0x3c, 0x9a, 0x41, 0x1a, 0xbe,
  0xd5, 0xb2, 0x83, 0x3e, 0x7b, 0x24, 0x6a, 0x3d, 0xc3, 0x3f, 0x9f, 0x3e,
  0xa6, 0xe0, 0xb2, 0x3d, 0xd7, 0x74, 0x81, 0x3c, 0xa4, 0x5e, 0x48, 0xbe,
  0xf7, 0x91, 0x3c, 0xbe, 0x0b, 0x65, 0xa1, 0xbe, 0xaa, 0x48, 0x93, 0xbd,
  0x87, 0xf2, 0xbb, 0xbc, 0x7b, 0xf7, 0x47, 0xbc, 0xdf, 0xdb, 0x6a, 0xbb,
  0x09, 0x02, 0x05, 0x3e, 0x13, 0xa9, 0xfb, 0xbd, 0xc6, 0x05, 0x83, 0xbe,
  0xfe, 0x15, 0xb7, 0xbe, 0x77, 0xe1, 0x36, 0xbd, 0xfa, 0x7d, 0x2e, 0x3d,
  0x58, 0x8c, 0xb4, 0x3e, 0x42, 0xce, 0xef, 0x3c, 0x40, 0x15, 0x84, 0x3d,
  0xd9, 0xe0, 0x10, 0xbb, 0x7e, 0x99, 0x42, 0xbd, 0xa0, 0x57, 0x4b, 0xbe,
  0x40, 0xb2, 0x3f, 0xbe, 0x7a, 0x37, 0x86, 0x3d, 0x99, 0xd5, 0x39, 0xbe,
  0xda, 0x35, 0x22, 0x3d, 0xa2, 0x36, 0xb7, 0x3e, 0xfc, 0xb4, 0x59, 0xbd,
  0xe3, 0x1b, 0x77, 0xbe, 0x68, 0x08, 0x3b, 0xbe, 0xed, 0xa0, 0x9a, 0xbd,
  0xe8, 0x72, 0xcc, 0xbd, 0x13, 0xf2, 0xf5, 0xbd, 0x98, 0xd9, 0x27, 0x3c,
  0xd4, 0xbf, 0x91, 0xbc, 0x48, 0xb7, 0xac, 0xbe, 0x58, 0xd6, 0x92, 0xbe,
  0x14, 0x9a, 0xe0, 0x3c, 0xeb, 0xd4, 0xf4, 0xbc, 0x50, 0x85, 0x2b, 0xbe,
  0x68, 0xc0, 0x78, 0xbd, 0x48, 0x71, 0x91, 0xbd, 0x63, 0xee, 0xb6, 0x3d,
  0x47, 0xea, 0x72, 0xbd, 0x79, 0xba, 0x80, 0xbd, 0xdf, 0x7a, 0x08, 0xbe,
  0x58, 0x2d, 0xe1, 0xbc, 0xf0, 0x9b, 0xce, 0x3b, 0xca, 0xf9, 0x76, 0xbe,
  0x14, 0xf2, 0xb8, 0xbc, 0x73, 0xd9, 0x23, 0x3e, 0xe2, 0x02, 0x13, 0xbd,
  0x0a, 0xdf, 0xff, 0xff, 0x10, 0x00, 0x00, 0x00, 0x08, 0x00, 0x00, 0x00,
  0x1c, 0x00, 0x00, 0x00, 0x38, 0x00, 0x00, 0x00, 0x04, 0x00, 0x00, 0x00,
  0x10, 0x00, 0x00, 0x00, 0x04, 0x00, 0x00, 0x00, 0x01, 0x00, 0x00, 0x00,
  0x08, 0x00, 0x00, 0x00, 0x1a, 0x00, 0x00, 0x00, 0x73, 0x65, 0x71, 0x75,
  0x65, 0x6e, 0x74, 0x69, 0x61, 0x6c, 0x2f, 0x63, 0x6f, 0x6e, 0x76, 0x32,
  0x64, 0x5f, 0x31, 0x2f, 0x43, 0x6f, 0x6e, 0x76, 0x32, 0x44, 0x00, 0x00,
  0x04, 0xdf, 0xff, 0xff, 0xfa, 0xdf, 0xff, 0xff, 0x04, 0x00, 0x00, 0x00,
  0x80, 0x01, 0x00, 0x00, 0x3a, 0x6b, 0xf3, 0xbe, 0x92, 0xe8, 0x3f, 0xbb,
  0xaf, 0x95, 0x92, 0x3d, 0xf7, 0x32, 0xe4, 0x3c, 0x98, 0x7e, 0x44, 0xbb,
  0x61, 0x39, 0x9e, 0x3d, 0x0d, 0x37, 0xbb, 0x3e, 0xdc, 0x5f, 0x10, 0x3e,
  0x42, 0x8d, 0x00, 0x3d, 0x63, 0x2c, 0x92, 0x3e, 0xc6, 0xa3, 0x32, 0x3d,
  0xae, 0x69, 0x45, 0xbc, 0x73, 0x7c, 0x4a, 0x3e, 0x77, 0x05, 0x64, 0xbe,
  0x3b, 0x69, 0xa7, 0x3d, 0x39, 0x05, 0xeb, 0xbd, 0x56, 0xe6, 0xd4, 0xbd,
  0xee, 0x30, 0xc7, 0x3c, 0x4a, 0xd6, 0xeb, 0xbd, 0x6a, 0x20, 0xd9, 0x3e,
  0x76, 0xb8, 0x1a, 0xbe, 0x10, 0xaf, 0xb9, 0x3d, 0xc4, 0xb0, 0xed, 0x3d,
  0x08, 0x37, 0x59, 0x3d, 0x98, 0xf0, 0xc7, 0x3d, 0xcf, 0xa3, 0x68, 0xbd,
  0x12, 0xe7, 0xc9, 0x3d, 0x16, 0xd0, 0xb9, 0x3d, 0x14, 0xa2, 0x90, 0x3e,
  0x2a, 0xe0, 0x59, 0x3e, 0x2c, 0x93, 0xfb, 0x3d, 0xf4, 0x0a, 0x0f, 0x3e,
  0xe4, 0xe8, 0x91, 0xbc, 0xbb, 0xc0, 0x8c, 0xbd, 0x99, 0x24, 0x53, 0xbe,
  0xad, 0x6e, 0x0d, 0xbf, 0x8e, 0x64, 0xf2, 0x3d, 0xb7, 0xdc, 0x45, 0x3e,
  0x10, 0xeb, 0xa9, 0xbd, 0x7b, 0x7b, 0x5e, 0x3e, 0x92, 0x1d, 0xa9, 0x3d,
  0xe7, 0x7b, 0x70, 0xbd, 0x5e, 0xcb, 0x76, 0xbc, 0x34, 0x2d, 0x56, 0xbe,
  0xe8, 0x24, 0x98, 0xbc, 0x4f, 0xde, 0x9d, 0x3e, 0xb9, 0xe9, 0xa9, 0x3d,
  0xa4, 0xbb, 0x8d, 0xbe, 0x3b, 0x01, 0xb6, 0x3e, 0x36, 0xec, 0xcf, 0xbd,
  0x8f, 0x2a, 0x44, 0x3e, 0xce, 0xf1, 0x26, 0xbe, 0x8d, 0xb9, 0x1a, 0x3e,
  0xe5, 0xf6, 0xc9, 0xbe, 0x72, 0xbc, 0x17, 0xbe, 0xe3, 0x3f, 0x05, 0xbd,
  0xe9, 0x5d, 0xc7, 0x3d, 0x74, 0x8e, 0x95, 0x3e, 0x45, 0x75, 0x0d, 0x3e,
  0x65, 0x86, 0xb7, 0x3d, 0xa2, 0xfc, 0x0f, 0xbd, 0x61, 0x74, 0x0e, 0x3d,
  0x37, 0xef, 0x2e, 0x3d, 0x3e, 0x3a, 0x71, 0xbc, 0xd1, 0xca, 0xcf, 0x3d,
  0xf6, 0xc0, 0xbe, 0x3b, 0x40, 0xe6, 0x91, 0x3c, 0xb8, 0x06, 0x0e, 0xbe,
  0xf0, 0x5a, 0xa2, 0x3d, 0x5e, 0xb6, 0x96, 0x3e, 0x51, 0x13, 0x21, 0xbe,
  0x3f, 0xa5, 0x4a, 0x3d, 0x13, 0x94, 0xb9, 0x3d, 0xbc, 0xc9, 0x13, 0x3e,
  0x36, 0x00, 0x7b, 0x3d, 0x6f, 0x0b, 0xe3, 0xbd, 0x11, 0x78, 0x9c, 0xbe,
  0x34, 0xf7, 0xdc, 0x3d, 0x2e, 0x48, 0x9b, 0x3e, 0xc8, 0x56, 0x23, 0xbd,
  0x98, 0x71, 0xa5, 0x3c, 0x85, 0x6a, 0xb3, 0x3e, 0x86, 0x4b, 0x55, 0x3e,
  0x64, 0x51, 0x33, 0xbe, 0x15, 0xd0, 0x88, 0x3e, 0xdd, 0x85, 0x31, 0x3d,
  0xe2, 0x7d, 0x0f, 0xbd, 0x72, 0xac, 0xf6, 0x3e, 0x69, 0xad, 0x2e, 0x3e,
  0xbf, 0x44, 0x2f, 0xbd, 0xdd, 0xad, 0xba, 0x3c, 0x52, 0xe6, 0xb4, 0xbd,
  0x10, 0xda, 0xee, 0x3d, 0x03, 0x98, 0x12, 0xbf, 0x96, 0xc9, 0x11, 0xbe,
  0xbb, 0xea, 0xbe, 0x3d, 0xe2, 0xe0, 0xff, 0xff, 0x10, 0x00, 0x00, 0x00,
  0x07, 0x00, 0x00, 0x00, 0x1c, 0x00, 0x00, 0x00, 0x38, 0x00, 0x00, 0x00,
  0x04, 0x00, 0x00, 0x00, 0x08, 0x00, 0x00, 0x00, 0x04, 0x00, 0x00, 0x00,
  0x03, 0x00, 0x00, 0x00, 0x01, 0x00, 0x00, 0x00, 0x18, 0x00, 0x00, 0x00,
  0x73, 0x65, 0x71, 0x75, 0x65, 0x6e, 0x74, 0x69, 0x61, 0x6c, 0x2f, 0x63,
  0x6f, 0x6e, 0x76, 0x32, 0x64, 0x2f, 0x43, 0x6f, 0x6e, 0x76, 0x32, 0x44,
  0x00, 0x00, 0x00, 0x00, 0xdc, 0xe0, 0xff, 0xff, 0xd2, 0xe1, 0xff, 0xff,
  0x04, 0x00, 0x00, 0x00, 0xc0, 0x00, 0x00, 0x00, 0x5f, 0x3d, 0xcd, 0xbe,
  0xfd, 0xfd, 0x7d, 0xbe, 0x0d, 0xbd, 0xdb, 0xbe, 0xa4, 0xc3, 0x66, 0x3c,
  0x46, 0x06, 0x0e, 0x3e, 0x33, 0x07, 0xab, 0x3e, 0xfa, 0xc0, 0xe3, 0x3d,
  0x63, 0xab, 0x48, 0x3e, 0xb1, 0x52, 0xfa, 0x3b, 0xb6, 0xf2, 0x42, 0xbb,
  0x8f, 0xb1, 0x09, 0x3e, 0x19, 0x6e, 0x02, 0x3e, 0x5d, 0x5f, 0x91, 0xbd,
  0x4a, 0xa5, 0x90, 0x3e, 0x66, 0x26, 0xdb, 0xbd, 0x27, 0xd2, 0x8b, 0xbd,
  0x0b, 0xb2, 0xe6, 0xbe, 0x94, 0xdc, 0x42, 0xbf, 0xae, 0x0c, 0x16, 0x3e,
  0x11, 0xc2, 0x4c, 0xbd, 0xee, 0x6f, 0xfe, 0x3d, 0x5c, 0x13, 0xbc, 0x3e,
  0xd2, 0x4d, 0xff, 0xbc, 0x58, 0xe9, 0x2f, 0xbf, 0x5a, 0xa3, 0xf0, 0x3d,
  0x18, 0x95, 0x17, 0xbd, 0xa9, 0xe9, 0xfe, 0x3d, 0xa9, 0x40, 0x0f, 0x3e,
  0xfe, 0x18, 0xc8, 0xbe, 0x65, 0xc9, 0x60, 0x3e, 0x76, 0x68, 0x0b, 0xbf,
  0x3a, 0xd2, 0xc8, 0xbe, 0xdd, 0x56, 0xf5, 0xbe, 0x3b, 0x6b, 0x29, 0xbe,
  0x37, 0x14, 0xd6, 0xbd, 0x01, 0x61, 0xef, 0xbc, 0x9c, 0xcc, 0x9f, 0x3d,
  0x7d, 0xc2, 0xaa, 0x3e, 0x88, 0xc0, 0x13, 0x3e, 0x61, 0x99, 0xc2, 0x3d,
  0xee, 0xfd, 0x51, 0x3d, 0x07, 0x7f, 0x41, 0x3d, 0x42, 0x65, 0xa1, 0x3c,
  0xe1, 0x77, 0x28, 0x3e, 0x81, 0x74, 0xf0, 0xbd, 0x8c, 0x16, 0x4f, 0x3e,
  0x8a, 0xa8, 0x15, 0xbe, 0xbe, 0xa9, 0x26, 0xbd, 0xfa, 0xe1, 0xff, 0xff,
  0x10, 0x00, 0x00, 0x00, 0x06, 0x00, 0x00, 0x00, 0x14, 0x00, 0x00, 0x00,
  0x30, 0x00, 0x00, 0x00, 0x02, 0x00, 0x00, 0x00, 0x03, 0x00, 0x00, 0x00,
  0x10, 0x00, 0x00, 0x00, 0x19, 0x00, 0x00, 0x00, 0x73, 0x65, 0x71, 0x75,
  0x65, 0x6e, 0x74, 0x69, 0x61, 0x6c, 0x2f, 0x64, 0x65, 0x6e, 0x73, 0x65,
  0x5f, 0x31, 0x2f, 0x4d, 0x61, 0x74, 0x4d, 0x75, 0x6c, 0x00, 0x00, 0x00,
  0xec, 0xe1, 0xff, 0xff, 0xe2, 0xe2, 0xff, 0xff, 0x04, 0x00, 0x00, 0x00,
  0x00, 0x1c, 0x00, 0x00, 0x67, 0x24, 0x9b, 0x3c, 0xe1, 0x9b, 0x4d, 0x3d,
  0x2f, 0x9e, 0x5b, 0xbe, 0x1d, 0xc2, 0xac, 0xbe, 0x02, 0xd5, 0x0d, 0x3e,
  0x68, 0x84, 0xc7, 0xbd, 0x72, 0x24, 0x39, 0xbe, 0x60, 0x97, 0xa5, 0xbe,
  0xd5, 0x26, 0x05, 0xbe, 0xae, 0xe6, 0x27, 0x3c, 0x18, 0xc1, 0xeb, 0xbb,
  0x10, 0x36, 0x20, 0x3c, 0x44, 0xfd, 0xf3, 0x3c, 0x48, 0x4a, 0x23, 0xbe,
  0xe4, 0x1a, 0xfa, 0xbb, 0x13, 0x1b, 0x2b, 0xbe, 0x6c, 0x2a, 0x94, 0xbe,
  0x88, 0x5a, 0x0d, 0x3e, 0x7b, 0x84, 0x74, 0xbd, 0xfe, 0xa1, 0x0a, 0xbe,
  0x5b, 0xab, 0x81, 0xbd, 0xe4, 0xa6, 0xa3, 0xbe, 0x3d, 0xfc, 0x01, 0xbe,
  0x4a, 0xb5, 0x93, 0xbc, 0x47, 0x06, 0x38, 0xbe, 0x61, 0x5d, 0x9a, 0xbd,
  0xef, 0x74, 0xb8, 0xbe, 0xa9, 0x76, 0xf7, 0xbc, 0x2d, 0xe5, 0x2d, 0x3e,
  0x6c, 0x77, 0x86, 0xbd, 0xb4, 0x2b, 0xd5, 0xbd, 0x2d, 0x12, 0xe8, 0xbd,
  0x72, 0xcb, 0x00, 0xbe, 0xd2, 0xb5, 0x0f, 0x3e, 0xf6, 0xa3, 0x7f, 0xbd,
  0xb1, 0x8a, 0x57, 0xbe, 0x13, 0x19, 0xa5, 0x3d, 0xd1, 0xc7, 0x82, 0x3e,
  0xb8, 0xa3, 0x7c, 0xbe, 0x5c, 0x8e, 0x9f, 0xbe, 0x49, 0xe6, 0xca, 0xbd,
  0x08, 0xd5, 0x25, 0xbe, 0xfa, 0x9b, 0x9b, 0x3e, 0x88, 0x3c, 0x80, 0x3e,
  0x44, 0x21, 0xd6, 0x3c, 0x6c, 0x74, 0x7d, 0xbd, 0x3b, 0xbe, 0x22, 0x3e,
  0xd1, 0xa8, 0x35, 0xbd, 0x6f, 0xa2, 0x82, 0x3e, 0x7f, 0x42, 0xe5, 0x3c,
  0xe4, 0xda, 0x2a, 0xbe, 0x96, 0x57, 0x4a, 0xbd, 0x48, 0xe0, 0x7e, 0x3e,
  0x59, 0x4e, 0xa5, 0x3e, 0xe6, 0xe4, 0x36, 0x3d, 0x42, 0x35, 0xf1, 0xbd,
  0xce, 0xea, 0x98, 0xbd, 0xc5, 0xd4, 0xd3, 0xbd, 0x08, 0x56, 0xa9, 0x3e,
  0x50, 0x8a, 0xa2, 0x3d, 0xd3, 0x02, 0xa1, 0xbd, 0x3e, 0x46, 0x04, 0xbd,
  0xa1, 0x76, 0xb8, 0xbc, 0x22, 0x35, 0xa6, 0x3d, 0x9a, 0x5b, 0x3c, 0x3e,
  0x53, 0x99, 0xc0, 0x3e, 0xc0, 0x0a, 0x68, 0xbd, 0xf6, 0x9c, 0x0a, 0xbd,
  0x17, 0x8d, 0x88, 0x3e, 0xe4, 0x78, 0x83, 0x3e, 0xf2, 0xe4, 0x56, 0xbe,
  0xe4, 0x04, 0x9e, 0x3d, 0xd3, 0x18, 0x96, 0x3b, 0xc3, 0xce, 0x03, 0x3d,
  0x28, 0xa4, 0x42, 0x3e, 0x61, 0xd4, 0x3e, 0x3e, 0x58, 0x52, 0x45, 0xbe,
  0xc1, 0xc9, 0xb5, 0xbd, 0xf1, 0x18, 0x4d, 0x3d, 0xcf, 0xdd, 0x93, 0xbe,
  0xbc, 0x6f, 0x52, 0x3d, 0x5e, 0xd2, 0xa6, 0x3e, 0xe6, 0xd2, 0x6b, 0x3e,
  0xa8, 0x3d, 0x13, 0x3d, 0x64, 0xb8, 0xea, 0x3e, 0x63, 0x88, 0xa7, 0x3e,
  0xd0, 0x7a, 0x51, 0xbe, 0x34, 0x02, 0xa6, 0xbd, 0x34, 0x22, 0xc0, 0xbd,
  0x2b, 0x89, 0xb1, 0xbd, 0xc8, 0xce, 0xe1, 0x3c, 0xc0, 0xf6, 0xa0, 0x3e,
  0x47, 0x4a, 0x93, 0xbe, 0x05, 0x29, 0xd7, 0xbe, 0x59, 0xc3, 0x5d, 0xbe,
  0x4f, 0xf1, 0x61, 0xbe, 0xd5, 0x4e, 0x0d, 0x3e, 0x48, 0x5a, 0x51, 0x3e,
  0x2e, 0x52, 0x77, 0x3d, 0xaa, 0x0c, 0x12, 0x3c, 0xf4, 0x29, 0xcd, 0xbb,
  0x54, 0xb9, 0x5b, 0x3d, 0x6a, 0x60, 0xa0, 0xbe, 0x31, 0xb8, 0x0a, 0xbd,
  0x1a, 0x19, 0x06, 0x3d, 0xf4, 0xba, 0x85, 0xbe, 0xb4, 0xdc, 0xe4, 0xbc,
  0x62, 0xff, 0x4a, 0x3e, 0x91, 0xd7, 0x96, 0xbe, 0x37, 0x11, 0x2f, 0xbd,
  0x08, 0x43, 0x93, 0xbe, 0x4d, 0x79, 0x1b, 0xbe, 0x5e, 0x1e, 0xe6, 0xbc,
  0x05, 0xe3, 0x2e, 0x3d, 0x3a, 0x94, 0x2e, 0x3e, 0xc5, 0xd8, 0x08, 0xbe,
  0x7c, 0xc1, 0xaa, 0x3e, 0x55, 0x09, 0x6a, 0xbc, 0xb7, 0xc9, 0xa7, 0xbd,
  0x8d, 0xf7, 0xdd, 0x3c, 0x3c, 0xc3, 0x93, 0xbd, 0xd0, 0x56, 0x05, 0x3f,
  0x74, 0x80, 0xab, 0xbd, 0xa8, 0x55, 0x80, 0xbd, 0xc9, 0xf8, 0x21, 0x3e,
  0x73, 0xc0, 0x8e, 0x3e, 0xeb, 0x5a, 0xea, 0x3e, 0x06, 0xe9, 0x2b, 0x3e,
  0x46, 0x32, 0xe1, 0xbc, 0x63, 0x9b, 0xc2, 0xbd, 0xa1, 0x01, 0x2d, 0x3e,
  0x15, 0x2e, 0x96, 0xbe, 0x6d, 0x8a, 0x4a, 0x3e, 0x64, 0x0a, 0x50, 0xbd,
  0x68, 0xda, 0x05, 0x3e, 0x46, 0x50, 0xa4, 0x3d, 0xf4, 0x83, 0x3c, 0xbd,
  0x65, 0x60, 0x76, 0xbd, 0xf0, 0x2e, 0x85, 0x3d, 0x37, 0x90, 0xb8, 0x3d,
  0x41, 0x93, 0xc5, 0x3e, 0x60, 0x89, 0x12, 0x3e, 0xe6, 0xdc, 0x7b, 0x3d,
  0xee, 0x1a, 0x68, 0xbc, 0x5b, 0x6d, 0xde, 0xbc, 0xf9, 0x90, 0xf1, 0x3c,
  0x84, 0x17, 0x30, 0xbe, 0x6e, 0x3f, 0xc3, 0xbe, 0x5c, 0x7c, 0x35, 0xbc,
  0xea, 0xee, 0x3b, 0xbe, 0x56, 0x06, 0xfb, 0x3c, 0xe5, 0x45, 0x2c, 0xbe,
  0x1a, 0x17, 0x51, 0x3e, 0xd9, 0xb5, 0x67, 0x3e, 0xc9, 0x79, 0x7b, 0xbd,
  0xe0, 0x80, 0xd4, 0x3e, 0x63, 0xb0, 0xb8, 0x3d, 0x98, 0x1f, 0x21, 0x3e,
  0x78, 0x0b, 0x8f, 0x3e, 0xc0, 0x41, 0x2f, 0x3e, 0xc7, 0x1b, 0xa4, 0xbe,
  0x4a, 0x91, 0x1f, 0xbe, 0x57, 0x0b, 0x26, 0x3c, 0xe0, 0xd6, 0xd2, 0xbe,
  0x9b, 0x21, 0x5e, 0x3d, 0x65, 0x53, 0x88, 0x3d, 0x43, 0x44, 0xc8, 0x3d,
  0xb7, 0xbf, 0x09, 0x3e, 0x05, 0x27, 0xb8, 0xbd, 0x12, 0x1c, 0x16, 0x3e,
  0x00, 0x90, 0x4d, 0xbe, 0x9d, 0xa8, 0x79, 0xbc, 0x5c, 0xcf, 0x14, 0x3f,
  0x51, 0x33, 0xb1, 0xbd, 0x74, 0x32, 0xab, 0x3c, 0xc8, 0xc9, 0x00, 0xbe,
  0x3f, 0xc9, 0xb1, 0xbd, 0x4f, 0x06, 0x8e, 0xbd, 0xa2, 0x2a, 0x3e, 0xbe,
  0xe6, 0x7b, 0xf4, 0xbe, 0xfc, 0xb8, 0x8a, 0x3e, 0x98, 0x21, 0x90, 0x3d,
  0xaf, 0x10, 0x00, 0xbc, 0xbd, 0x24, 0x95, 0x3c, 0xd0, 0xc2, 0x5a, 0xbd,
  0x93, 0xa9, 0xc1, 0xbc, 0xd9, 0x81, 0x09, 0xbe, 0x80, 0xe0, 0x74, 0x3e,
  0x04, 0x1c, 0xb9, 0x3e, 0x49, 0x6d, 0x65, 0x3e, 0x5b, 0x81, 0x08, 0xbe,
  0x16, 0xe6, 0xb2, 0xbd, 0x8d, 0xb5, 0x30, 0xbe, 0x9a, 0xf6, 0x76, 0xbe,
  0x8c, 0x66, 0xd2, 0xbd, 0x83, 0x6d, 0xa6, 0xbe, 0x21, 0x96, 0x50, 0x3e,
  0x0d, 0xa3, 0xaa, 0xbe, 0x85, 0xda, 0x37, 0xbd, 0x76, 0xcf, 0xb8, 0xbc,
  0xbc, 0xf5, 0x92, 0xbe, 0xb3, 0xd5, 0x1c, 0xbd, 0xae, 0xbc, 0xd5, 0x3d,
  0x48, 0x8b, 0x33, 0x3d, 0xc9, 0x6f, 0xd6, 0x3d, 0x6a, 0xf3, 0x33, 0x3d,
  0x2b, 0x60, 0xda, 0xbd, 0x8d, 0xc8, 0xec, 0x3d, 0x9f, 0xaa, 0x00, 0x3d,
  0xf5, 0xfc, 0x22, 0x3d, 0x01, 0x4c, 0x64, 0xbd, 0x25, 0xea, 0x3d, 0xbe,
  0x91, 0x28, 0x98, 0x3a, 0xb7, 0xa9, 0x01, 0xbd, 0x05, 0x0f, 0xf2, 0x3e,
  0xbd, 0x93, 0x8e, 0x3e, 0x56, 0x24, 0x12, 0xbe, 0x9d, 0x23, 0x95, 0x3e,
  0x92, 0xae, 0x67, 0xbe, 0xf8, 0x10, 0xad, 0x3c, 0xa3, 0xbe, 0xec, 0x3e,
  0xf8, 0x85, 0x1b, 0xbe, 0x50, 0x63, 0x07, 0x3e, 0x3f, 0xd7, 0xe2, 0x3c,
  0x31, 0x15, 0x93, 0xbe, 0x2e, 0x38, 0x12, 0x3e, 0xe7, 0xe9, 0x58, 0xbe,
  0xd6, 0x46, 0x1b, 0xbe, 0x81, 0xb7, 0xc4, 0x3a, 0x4c, 0x23, 0xc3, 0xbd,
  0x60, 0x95, 0x63, 0xbd, 0xcd, 0xd7, 0x5a, 0xbe, 0x7c, 0x98, 0xdb, 0xbd,
  0xca, 0xeb, 0xea, 0xbd, 0x15, 0xc3, 0x38, 0xbc, 0x77, 0x1b, 0xed, 0x3d,
  0x76, 0x6c, 0xfb, 0xbd, 0x1e, 0xba, 0x22, 0xbd, 0x58, 0xfe, 0x06, 0xbd,
  0xc7, 0x81, 0x37, 0x3b, 0x8d, 0x85, 0x78, 0xbe, 0xe0, 0x96, 0xb9, 0xbd,
  0xa6, 0xde, 0xe0, 0xbd, 0xbe, 0x94, 0xad, 0xbd, 0xe1, 0x54, 0x8f, 0xbd,
  0xd7, 0x9b, 0x97, 0xbe, 0xca, 0xc4, 0x18, 0x3e, 0x92, 0x1f, 0x22, 0xba,
  0xe5, 0xab, 0x17, 0xbd, 0x30, 0xd4, 0xf7, 0xbd, 0x39, 0x34, 0x1d, 0x3d,
  0x28, 0xa8, 0x3f, 0xbc, 0x0c, 0xb8, 0x80, 0x3d, 0x3f, 0x5c, 0x32, 0x3e,
  0x8c, 0x6c, 0x4f, 0x3e, 0x52, 0xd2, 0x96, 0xbe, 0xe6, 0xdf, 0x60, 0x3d,
  0xe0, 0x7a, 0x3a, 0x3e, 0x52, 0x79, 0xb0, 0xbd, 0x5b, 0x5b, 0x96, 0xbe,
  0xc8, 0xad, 0x33, 0xbe, 0x0b, 0xa2, 0xcc, 0xba, 0x49, 0x2c, 0x9b, 0xbd,
  0x53, 0x49, 0x87, 0xbd, 0x2a, 0x9c, 0x66, 0x3d, 0x4c, 0x36, 0x7c, 0x3d,
  0x80, 0x11, 0x0a, 0x3e, 0xe5, 0x93, 0x0b, 0xbe, 0xd0, 0x0c, 0xb3, 0x3d,
  0x11, 0x58, 0x33, 0xbd, 0x1c, 0x48, 0xd7, 0xbc, 0x01, 0x99, 0x00, 0x3e,
  0x2a, 0x6b, 0xfd, 0x3d, 0xa6, 0xf7, 0x3f, 0x3d, 0x14, 0x4f, 0x83, 0xbe,
  0xf9, 0x63, 0x70, 0xbe, 0xde, 0x3b, 0xb9, 0x3d, 0x06, 0xd9, 0x3f, 0xbe,
  0x34, 0xf2, 0xe7, 0xbd, 0x04, 0x9e, 0x65, 0xbe, 0xfe, 0xbf, 0x1c, 0xbe,
  0x45, 0xcd, 0xd1, 0x3d, 0x9a, 0xa7, 0x4c, 0xbe, 0x9f, 0x7a, 0xdf, 0xbd,
  0x37, 0xe4, 0xdc, 0x3d, 0xbe, 0x9a, 0xc9, 0x3c, 0x49, 0x83, 0x22, 0xbd,
  0x13, 0x1a, 0x1e, 0x3b, 0xab, 0x33, 0xcf, 0xbd, 0x59, 0x8d, 0xf9, 0x3d,
  0xb5, 0xb0, 0x0d, 0xbe, 0x59, 0x10, 0x38, 0xbe, 0xe1, 0x20, 0x8b, 0x3d,
  0x57, 0x16, 0xd9, 0xbd, 0xa2, 0xc3, 0x13, 0xbe, 0xce, 0xd9, 0x4c, 0x3d,
  0x46, 0x47, 0x7f, 0xbc, 0x92, 0xe8, 0x34, 0x3e, 0xf5, 0x02, 0x48, 0xbe,
  0xc8, 0x16, 0xbf, 0x3c, 0x45, 0xe7, 0x60, 0xbd, 0x5f, 0x01, 0x0a, 0xbe,
  0x5b, 0x7a, 0x43, 0xbc, 0xa9, 0x29, 0x68, 0x3d, 0x0f, 0x1d, 0x0e, 0x3d,
  0x69, 0x64, 0x51, 0xbc, 0xd1, 0xa3, 0x33, 0xbd, 0xd4, 0x09, 0x78, 0xbe,
  0x86, 0x79, 0x2a, 0xbe, 0x08, 0x72, 0x06, 0xbe, 0x09, 0x38, 0x84, 0x3c,
  0x85, 0x98, 0x0d, 0x3e, 0xe7, 0x83, 0xa4, 0xbd, 0x90, 0x98, 0x40, 0x3d,
  0x4e, 0x8f, 0x57, 0xbe, 0x7f, 0xb6, 0x80, 0x3d, 0xdb, 0xf4, 0x5f, 0xbd,
  0x48, 0x33, 0x0a, 0xbc, 0xb2, 0x84, 0x0b, 0x3d, 0xa3, 0x3a, 0x77, 0x3e,
  0xb2, 0xde, 0x05, 0x3d, 0xc6, 0x2f, 0xba, 0xbd, 0xcd, 0x13, 0xee, 0xbd,
  0x28, 0x2a, 0x4c, 0xbe, 0xf6, 0xbd, 0x89, 0xbd, 0x8d, 0x5e, 0x4a, 0xbe,
  0x0f, 0x5f, 0x40, 0x3e, 0xfe, 0x45, 0xd3, 0x3c, 0x67, 0xa6, 0x53, 0xbe,
  0xfe, 0x6d, 0x0f, 0xbe, 0xf4, 0xc6, 0x46, 0xbe, 0xba, 0x96, 0xe5, 0x3d,
  0xa9, 0x81, 0x78, 0x3e, 0x40, 0xd2, 0xbe, 0xbd, 0xc0, 0xae, 0xb8, 0x3d,
  0x55, 0x7a, 0x38, 0x3e, 0x8d, 0xd1, 0x95, 0x3e, 0x40, 0x26, 0x17, 0x3f,
  0x3b, 0x45, 0x28, 0xbe, 0x84, 0x6b, 0x1f, 0xbe, 0x0b, 0xb2, 0x33, 0x3f,
  0x53, 0xc2, 0xfb, 0x3d, 0x73, 0xc0, 0x98, 0xbe, 0x6c, 0xcb, 0x69, 0xbd,
  0xf6, 0x91, 0x50, 0x3d, 0x69, 0x73, 0x8b, 0xbe, 0x25, 0xa9, 0xfe, 0x3d,
  0x2a, 0x4b, 0x5f, 0x3e, 0x00, 0x6b, 0xbe, 0xbe, 0x99, 0x80, 0x8b, 0xbe,
  0x19, 0x72, 0x83, 0xbe, 0xd1, 0xf9, 0xc1, 0xbd, 0x34, 0xbf, 0x51, 0xbe,
  0xf0, 0xdc, 0xf7, 0x3c, 0x0c, 0x3d, 0xdb, 0x3b, 0x45, 0x56, 0xc8, 0xbd,
  0xc5, 0x70, 0xc7, 0x3e, 0xad, 0x46, 0xb5, 0x3e, 0xff, 0xfc, 0x1a, 0xbe,
  0x13, 0x30, 0x50, 0xbe, 0x25, 0x5d, 0x88, 0xbe, 0xda, 0xc1, 0x82, 0xbe,
  0x84, 0x53, 0xa0, 0x3e, 0xd3, 0x20, 0x72, 0x3d, 0xed, 0xf0, 0xfc, 0xbe,
  0xb8, 0x42, 0xdf, 0xbc, 0x17, 0xf9, 0x0d, 0x3d, 0xac, 0xfc, 0xb3, 0xbd,
  0xa7, 0x9f, 0xba, 0xba, 0x1a, 0x24, 0x3c, 0xbe, 0x35, 0xfb, 0xa5, 0x3d,
  0xed, 0x0b, 0x20, 0xbe, 0x98, 0x10, 0x0f, 0x3f, 0xef, 0x48, 0xae, 0x3e,
  0xe2, 0xb5, 0xcd, 0xbd, 0x55, 0x06, 0x1d, 0xbe, 0xef, 0xb8, 0x9a, 0xbe,
  0x20, 0xd7, 0xff, 0x3c, 0xf9, 0x48, 0x9b, 0x3e, 0x38, 0xe5, 0x42, 0x3e,
  0xd6, 0x17, 0x29, 0x3d, 0xcb, 0x58, 0xd6, 0xbd, 0xbf, 0x9c, 0x8c, 0xbd,
  0x80, 0x13, 0x92, 0x3d, 0x6a, 0x39, 0x93, 0x3d, 0xc4, 0x3d, 0x1d, 0xbd,
  0xe0, 0x6b, 0x5a, 0x3e, 0x27, 0xa0, 0x1b, 0xbe, 0x78, 0x56, 0xb8, 0x3e,
  0x45, 0x96, 0x96, 0x3e, 0x03, 0xf9, 0x99, 0xbd, 0x76, 0x0b, 0x11, 0xbe,
  0xde, 0x7d, 0xb3, 0xbd, 0x8a, 0x40, 0xac, 0xbd, 0x6c, 0xc5, 0x27, 0x3e,
  0x72, 0xd7, 0xfb, 0x3d, 0xb2, 0xf6, 0xee, 0xbe, 0x9f, 0x4a, 0xf2, 0xbd,
  0x36, 0x7a, 0xd1, 0xbd, 0xd5, 0x4a, 0xfb, 0x3c, 0xb1, 0x1a, 0x31, 0x3e,
  0x5b, 0xa2, 0x94, 0x3d, 0x78, 0xa0, 0xb6, 0x3d, 0xca, 0x8b, 0x49, 0xbc,
  0xbc, 0x72, 0x71, 0x3e, 0xe2, 0x59, 0x09, 0x3e, 0xd7, 0xb8, 0x41, 0xbd,
  0xf8, 0x92, 0xc5, 0xbd, 0x32, 0xa4, 0xd4, 0xbd, 0x01, 0x5c, 0xf0, 0xbc,
  0xb7, 0x87, 0x2f, 0x3e, 0xb7, 0x4f, 0xc1, 0x3e, 0xe4, 0xa2, 0xb1, 0xbe,
  0x72, 0x0d, 0xc0, 0xbd, 0x07, 0x29, 0x43, 0xbe, 0x67, 0x8f, 0xf4, 0xbb,
  0xf2, 0x7b, 0x76, 0x3d, 0xb7, 0xe7, 0xa1, 0x3d, 0x92, 0x36, 0x1e, 0x3e,
  0x4c, 0x3e, 0x78, 0xbc, 0x1a, 0xbe, 0x20, 0x3e, 0x6e, 0x91, 0x84, 0x3e,
  0x37, 0x38, 0xd3, 0xbd, 0x42, 0x40, 0x68, 0xbd, 0x18, 0xf9, 0xe7, 0xbc,
  0x70, 0x14, 0xc9, 0xbc, 0x8c, 0xe6, 0x6e, 0x3e, 0x66, 0x07, 0xe1, 0x3e,
  0x62, 0x9d, 0x89, 0xbe, 0x7c, 0xe6, 0x4b, 0xbe, 0x64, 0x81, 0x99, 0x3d,
  0x2b, 0x58, 0xa0, 0x3b, 0x60, 0x62, 0x0d, 0x3e, 0x1f, 0x95, 0xca, 0x3e,
  0x5f, 0x85, 0x11, 0xbd, 0x98, 0x51, 0xd1, 0xbc, 0x2f, 0xec, 0xd4, 0xba,
  0x02, 0x3b, 0xec, 0x3c, 0x20, 0x66, 0xe7, 0xbd, 0x48, 0xbc, 0x31, 0xbe,
  0xd9, 0x6e, 0x92, 0xbc, 0x28, 0x1a, 0x00, 0xbd, 0x55, 0xa0, 0x27, 0x3d,
  0x09, 0x45, 0x3b, 0x3e, 0x10, 0x10, 0xf3, 0xbd, 0x3a, 0x83, 0xf5, 0xbd,
  0x8b, 0xae, 0xff, 0xbe, 0xd3, 0xfe, 0xe4, 0xbc, 0x95, 0xfa, 0x9b, 0x3e,
  0x0e, 0x16, 0xe4, 0x3e, 0x16, 0xb0, 0xbd, 0xbc, 0x97, 0x3e, 0x3e, 0xbc,
  0x63, 0xda, 0x83, 0x3e, 0x93, 0x29, 0x7b, 0x3d, 0xbe, 0xa5, 0x07, 0xbe,
  0x01, 0x21, 0x86, 0xbd, 0xc0, 0x3d, 0xc7, 0x3d, 0x58, 0x91, 0xbe, 0x3d,
  0xca, 0x8d, 0x76, 0x3e, 0x2c, 0xe4, 0x8d, 0x3e, 0x31, 0xea, 0x86, 0xbe,
  0x44, 0x22, 0xaf, 0xbd, 0x35, 0x20, 0x86, 0xbd, 0x90, 0xe5, 0xbe, 0xbc,
  0xe0, 0xdb, 0xf2, 0x3d, 0x42, 0x24, 0x7d, 0x3e, 0x3d, 0x9c, 0x5f, 0x3d,
  0xee, 0x5f, 0xd5, 0xbd, 0x78, 0xff, 0xcd, 0x3e, 0x32, 0x6e, 0x25, 0x3e,
  0x81, 0xad, 0xbe, 0xbd, 0xb7, 0x43, 0xfd, 0xbd, 0x45, 0x43, 0x87, 0xbe,
  0x2c, 0x98, 0x7c, 0xbe, 0x88, 0xc8, 0xb2, 0x3d, 0x76, 0xf7, 0xbf, 0x3e,
  0x16, 0x27, 0x4d, 0xbe, 0x3f, 0xb3, 0xac, 0xbd, 0xfd, 0x2d, 0xb4, 0x3d,
  0xea, 0x29, 0xad, 0xbd, 0xf2, 0xae, 0x53, 0x3d, 0x22, 0x38, 0xa9, 0x3d,
  0xea, 0xe1, 0x23, 0x3e, 0x9a, 0xbf, 0xf3, 0xbd, 0x48, 0xe8, 0x14, 0x3d,
  0xbf, 0xe8, 0x15, 0x3d, 0x5b, 0x6f, 0x00, 0xbe, 0x7e, 0xaf, 0x99, 0xbe,
  0x14, 0xb8, 0xd5, 0xbe, 0x7f, 0x07, 0x8b, 0xbe, 0xd5, 0xce, 0x3c, 0x3e,
  0xb2, 0x04, 0x22, 0x3e, 0x4c, 0x31, 0x78, 0xbe, 0xa3, 0x5e, 0x50, 0xbe,
  0x2c, 0xfe, 0xf2, 0x3d, 0x98, 0xb3, 0x90, 0x3d, 0x2c, 0xc6, 0x4d, 0x3d,
  0xbf, 0xe3, 0x59, 0x3e, 0xf9, 0xc8, 0xa0, 0x3c, 0x43, 0x6e, 0xcd, 0xbd,
  0x33, 0xb9, 0x8a, 0x3d, 0x5d, 0x3f, 0x5c, 0x3e, 0x5e, 0x23, 0x16, 0xbe,
  0x1d, 0xcd, 0xad, 0xbe, 0x8b, 0x2d, 0x59, 0xbe, 0x4f, 0xe1, 0x7f, 0xbe,
  0xfc, 0x05, 0x72, 0x3e, 0x6c, 0x93, 0x03, 0x3e, 0x3d, 0xb2, 0x19, 0xba,
  0xc3, 0x6d, 0x51, 0x3c, 0x47, 0x35, 0xa1, 0x3d, 0xd6, 0x18, 0x0e, 0x3e,
  0x1a, 0xfc, 0xc2, 0x3d, 0xca, 0xdf, 0x78, 0x3e, 0x42, 0xee, 0x0d, 0x3d,
  0xef, 0xa0, 0x96, 0xbc, 0x29, 0x20, 0x43, 0x3e, 0x46, 0xd1, 0x8a, 0x3d,
  0x0b, 0xa3, 0x0f, 0xbe, 0xb9, 0x7e, 0x25, 0xbe, 0x5f, 0xad, 0xfe, 0xbc,
  0x41, 0xe6, 0x30, 0xbe, 0x0a, 0x4c, 0xba, 0x3d, 0x29, 0x45, 0x92, 0x3e,
  0xd9, 0x73, 0xc0, 0xbd, 0xe9, 0xf1, 0x0e, 0xbe, 0xb3, 0xbe, 0x8e, 0xbc,
  0x3a, 0x7b, 0x91, 0xbb, 0x66, 0xc7, 0x60, 0xbc, 0x52, 0x5e, 0x35, 0x3e,
  0x20, 0x4a, 0x0a, 0x3e, 0x74, 0x29, 0x88, 0xbc, 0x50, 0xa4, 0x02, 0x3e,
  0x96, 0xc7, 0x48, 0x3e, 0x09, 0xff, 0x04, 0xbe, 0xe9, 0x37, 0x97, 0xbd,
  0x79, 0xd8, 0x5e, 0xbc, 0x53, 0x66, 0xa4, 0x3d, 0xa3, 0xfe, 0x3f, 0x3e,
  0x75, 0xb6, 0xca, 0x3e, 0x93, 0xf4, 0x9b, 0x3d, 0x2f, 0xc6, 0x92, 0xbd,
  0x57, 0x94, 0xb2, 0x3d, 0xdd, 0xd1, 0xc6, 0xbd, 0xc5, 0x77, 0x0c, 0x3e,
  0xc0, 0xb0, 0xba, 0x3d, 0xfa, 0x32, 0xac, 0xbc, 0xee, 0x17, 0x60, 0xbc,
  0xa2, 0x1a, 0xad, 0xbd, 0x0c, 0xbd, 0x8b, 0x3d, 0x3b, 0xb7, 0xa4, 0xbd,
  0x0d, 0x1e, 0x06, 0xbe, 0x85, 0x82, 0xbb, 0xbd, 0xd6, 0x6e, 0x5c, 0xbe,
  0xa7, 0x20, 0x04, 0xbd, 0x43, 0xe8, 0x0a, 0x3e, 0x1e, 0xac, 0xfa, 0xbd,
  0xce, 0x06, 0x80, 0x3d, 0x76, 0xd1, 0xd0, 0x3b, 0x3b, 0x1e, 0x43, 0xbc,
  0xd2, 0x34, 0xbd, 0xbd, 0xc8, 0x23, 0x8d, 0x3d, 0x43, 0xb7, 0x7c, 0x3e,
  0xc4, 0xd7, 0x10, 0xbd, 0x9f, 0x9f, 0x1e, 0xbe, 0x11, 0x0b, 0xf3, 0xbd,
  0x04, 0x2d, 0xf8, 0xbd, 0x5d, 0xd8, 0x1c, 0x3e, 0x18, 0x75, 0xfb, 0x3d,
  0x96, 0x1e, 0x8d, 0xbc, 0xdd, 0x97, 0x74, 0x3e, 0x4e, 0x48, 0x2e, 0xbe,
  0x42, 0xe6, 0x61, 0xbf, 0xab, 0x29, 0x17, 0xbc, 0x7d, 0xdb, 0x19, 0xbe,
  0x0e, 0xee, 0xd8, 0xbc, 0x0a, 0xd6, 0x56, 0x3d, 0x86, 0x02, 0x83, 0xbe,
  0x96, 0x6a, 0xa1, 0x3c, 0x14, 0xf3, 0x80, 0xbd, 0xb3, 0x4f, 0x8f, 0xbb,
  0x1c, 0x8f, 0x61, 0xbe, 0xbe, 0x96, 0xc4, 0xbd, 0xce, 0x35, 0x27, 0x3d,
  0x33, 0x82, 0x76, 0x3d, 0xca, 0xa9, 0x25, 0xbe, 0xbb, 0x9b, 0x03, 0x3e,
  0x6a, 0x0a, 0xb7, 0x3c, 0x28, 0x6d, 0x02, 0xbe, 0x71, 0x46, 0x01, 0xbe,
  0xc9, 0x1e, 0x26, 0xbe, 0x78, 0xff, 0x57, 0xbe, 0x88, 0xcc, 0x93, 0x3e,
  0xcf, 0xfb, 0xa6, 0xbd, 0x59, 0x78, 0xfd, 0x3c, 0xb8, 0xf6, 0x46, 0xbd,
  0xb6, 0xc4, 0x46, 0x3c, 0xa8, 0x33, 0x2e, 0xbe, 0x5c, 0xd8, 0x47, 0xbd,
  0x75, 0xe4, 0x5c, 0x3d, 0xfa, 0xe4, 0x55, 0xb9, 0x08, 0x1f, 0xdc, 0xbd,
  0x8c, 0x8c, 0x66, 0x3d, 0x74, 0xc3, 0xd9, 0xbc, 0xc6, 0x33, 0xd7, 0xbe,
  0xdd, 0x68, 0xc4, 0xbd, 0x63, 0x12, 0x54, 0x3e, 0x6a, 0xc2, 0xb9, 0xbd,
  0xc1, 0x53, 0xb2, 0x3d, 0xc0, 0x9f, 0xa3, 0xbd, 0x88, 0xf2, 0xf5, 0x3d,
  0x3e, 0x08, 0x54, 0xbd, 0x5d, 0xec, 0x81, 0xbc, 0xb8, 0xc1, 0xab, 0xbd,
  0x54, 0x4a, 0x34, 0x3d, 0xcf, 0x87, 0xb0, 0x3d, 0x6c, 0x02, 0xb4, 0x3d,
  0x3e, 0x30, 0x5d, 0xbd, 0x4f, 0xc1, 0x76, 0x3c, 0xb4, 0x63, 0x23, 0x3d,
  0xbc, 0x97, 0xa3, 0xbe, 0x23, 0x22, 0x5d, 0xbd, 0xcc, 0xf5, 0xa7, 0xbc,
  0xfb, 0x7e, 0x89, 0xbd, 0x7c, 0x64, 0x02, 0x3e, 0xb0, 0x6f, 0x50, 0xbd,
  0xd5, 0x3e, 0x1d, 0x3e, 0xf2, 0x08, 0x84, 0xbd, 0x43, 0x60, 0x24, 0xbe,
  0xc6, 0x8d, 0x69, 0xbe, 0x8c, 0xea, 0x80, 0x3d, 0xee, 0xaf, 0x83, 0x3d,
  0x1f, 0xbf, 0x4d, 0xb8, 0xc0, 0x28, 0x21, 0xbe, 0xdf, 0x70, 0xe3, 0x3d,
  0x89, 0x1d, 0x47, 0xbd, 0xfa, 0xec, 0xab, 0xbe, 0x95, 0x65, 0x0e, 0xbe,
  0x2c, 0xc6, 0x23, 0xbe, 0x07, 0x96, 0x85, 0xbd, 0xf9, 0x26, 0xf5, 0x3d,
  0xaf, 0xd9, 0x30, 0x3e, 0x24, 0x3c, 0xcf, 0x3d, 0xa9, 0xbc, 0x99, 0xbc,
  0xc7, 0xd0, 0x6d, 0xbe, 0xc7, 0xbe, 0x49, 0xbe, 0xa9, 0x68, 0x98, 0xbd,
  0x73, 0x93, 0x2e, 0x3e, 0xd7, 0xae, 0x2c, 0x3d, 0xa4, 0xb8, 0x25, 0x3c,
  0x71, 0x99, 0xa5, 0x3d, 0x4a, 0xbf, 0xb7, 0xbd, 0x18, 0x98, 0x00, 0xbf,
  0x3e, 0x60, 0xd2, 0xbd, 0x5b, 0x11, 0xf6, 0xbd, 0xe0, 0x3f, 0xd6, 0xbd,
  0x32, 0x83, 0xb9, 0x3d, 0x7a, 0xa4, 0xec, 0xbc, 0x2c, 0x1c, 0x80, 0x3d,
  0xae, 0x14, 0xfa, 0x3c, 0x3a, 0x72, 0x94, 0xbd, 0x65, 0x63, 0xa8, 0xbc,
  0x2e, 0x87, 0xf1, 0xbd, 0xeb, 0x49, 0xd7, 0x3d, 0x01, 0xa1, 0x95, 0x3d,
  0x0b, 0x46, 0x4f, 0xbe, 0x0b, 0x09, 0x2c, 0xbc, 0x97, 0xff, 0x47, 0x3e,
  0x60, 0xbe, 0x94, 0xbe, 0xb6, 0x87, 0x12, 0xbd, 0x4a, 0x7a, 0xce, 0xbd,
  0x5a, 0x6c, 0x86, 0x3d, 0x37, 0xe1, 0xb3, 0xbe, 0x42, 0x2c, 0x63, 0xbe,
  0x07, 0x23, 0x5e, 0xbe, 0x2c, 0xb4, 0x7f, 0xbe, 0xd1, 0x09, 0x3e, 0xbe,
  0x59, 0xfa, 0x17, 0xbe, 0x42, 0xc2, 0x98, 0xbd, 0x56, 0x0b, 0x83, 0xbd,
  0xd9, 0x32, 0xec, 0xbd, 0x4e, 0x26, 0x2f, 0x3e, 0x38, 0xd3, 0xc4, 0xbe,
  0x91, 0xb4, 0x62, 0xbe, 0xc9, 0xc2, 0x8a, 0x3f, 0xa1, 0x05, 0x36, 0x3c,
  0xac, 0xcb, 0x75, 0x3e, 0xb0, 0xb5, 0x9d, 0x3e, 0x17, 0x06, 0xc1, 0x3d,
  0xbb, 0x44, 0x52, 0x3e, 0xaa, 0xd8, 0x1f, 0xbd, 0x76, 0xb6, 0xe6, 0xbd,
  0x8b, 0x18, 0x25, 0x3e, 0xa7, 0x2d, 0xcf, 0x3d, 0x55, 0xdf, 0xe0, 0x3d,
  0x5d, 0x7a, 0x2f, 0xbe, 0xf9, 0xa6, 0x32, 0xbe, 0x46, 0x74, 0x55, 0x3e,
  0x2f, 0xc4, 0x6e, 0xbe, 0xdd, 0x92, 0x4d, 0x3e, 0xf8, 0xc8, 0x90, 0x3f,
  0x64, 0xdf, 0xef, 0x3e, 0x1b, 0x72, 0x0b, 0xbf, 0x46, 0x7e, 0xc3, 0x3c,
  0xa5, 0x13, 0xbe, 0xbd, 0x7f, 0xbb, 0x06, 0x3e, 0x45, 0xe5, 0xbb, 0xbd,
  0xc3, 0xd5, 0xef, 0x3b, 0xc7, 0x3a, 0xe1, 0xbd, 0xee, 0xfa, 0xc0, 0xbd,
  0xf5, 0x94, 0xca, 0xbd, 0xc4, 0x83, 0xf5, 0xbc, 0xe6, 0x84, 0x00, 0xbd,
  0x32, 0x0c, 0x69, 0x3e, 0x76, 0x3a, 0x2d, 0x3e, 0xa3, 0xed, 0x8a, 0x3e,
  0x30, 0xa9, 0x09, 0x3f, 0x95, 0x01, 0xeb, 0x3e, 0xf7, 0x13, 0x26, 0xbf,
  0x33, 0x24, 0x06, 0x3d, 0x14, 0x6f, 0xe9, 0xbd, 0x1f, 0xac, 0x09, 0x3e,
  0x1a, 0x09, 0xa7, 0xbd, 0x68, 0xf6, 0xaf, 0xbd, 0x2a, 0x5f, 0x97, 0x3c,
  0xaa, 0x17, 0x67, 0xbd, 0xdc, 0x9c, 0xfb, 0x3d, 0xda, 0x58, 0x90, 0xbe,
  0x9b, 0x56, 0x0a, 0x3c, 0x6a, 0x80, 0x05, 0x3e, 0xce, 0x7e, 0xcf, 0xbd,
  0xd8, 0x2c, 0x0e, 0xbe, 0xa0, 0xe5, 0xce, 0x3d, 0x4b, 0x14, 0x8f, 0x3e,
  0xf9, 0xab, 0xe6, 0xbe, 0x6a, 0x77, 0x99, 0x3c, 0xa4, 0xbf, 0x88, 0xbe,
  0xa7, 0xd8, 0x43, 0x3d, 0x16, 0x03, 0x17, 0xbe, 0xde, 0xcf, 0x71, 0xb9,
  0xb2, 0x88, 0xbf, 0xbd, 0x57, 0xbb, 0x3a, 0xbe, 0xe1, 0x31, 0xe8, 0xbd,
  0xc5, 0x96, 0x81, 0xbe, 0x52, 0x2b, 0x62, 0xbe, 0x7c, 0xfc, 0x85, 0x3d,
  0x04, 0xf5, 0x2e, 0xbe, 0xf4, 0x98, 0x60, 0x3d, 0x9f, 0xba, 0x16, 0x3f,
  0x23, 0x85, 0x33, 0x3e, 0x55, 0xd4, 0x00, 0xbf, 0x45, 0xfe, 0x4f, 0x3e,
  0x23, 0xbb, 0x99, 0xbd, 0xcc, 0xa9, 0x05, 0xbd, 0xfd, 0x0c, 0xdd, 0xbe,
  0x8c, 0xf5, 0x03, 0x3d, 0xaa, 0x63, 0x2d, 0xbd, 0x2b, 0xa9, 0xaa, 0xbd,
  0xe0, 0xb5, 0x4d, 0x3e, 0xc2, 0x13, 0x82, 0xbe, 0x74, 0x6a, 0xa6, 0xbe,
  0xa6, 0x3e, 0x2c, 0x3e, 0x2f, 0x37, 0x0b, 0xbe, 0x49, 0x28, 0x0a, 0xbe,
  0x7c, 0x26, 0xa7, 0x3e, 0x81, 0xa7, 0xb3, 0x3d, 0xc1, 0x52, 0x79, 0xbe,
  0xfb, 0x96, 0x6d, 0x3e, 0xeb, 0x4b, 0x21, 0xbe, 0xb3, 0xd1, 0x6a, 0x3c,
  0x67, 0x5d, 0xe3, 0xbe, 0xc9, 0x1a, 0x0f, 0xbe, 0x21, 0x3f, 0x6e, 0xbe,
  0x8f, 0x01, 0x1d, 0xbe, 0xea, 0xd3, 0xa2, 0x3d, 0x4c, 0x92, 0x26, 0x3e,
  0x4f, 0xbf, 0xa5, 0xbe, 0x8c, 0x1b, 0x09, 0x3f, 0xf8, 0x72, 0x95, 0xbe,
  0x80, 0xee, 0x3d, 0x3e, 0x03, 0x9c, 0xa3, 0x3d, 0x7a, 0x01, 0x80, 0x3e,
  0x3d, 0xf1, 0x9c, 0xbd, 0x05, 0x11, 0x87, 0xbe, 0xe1, 0xc1, 0x72, 0x3e,
  0xae, 0x7d, 0x82, 0x3e, 0xee, 0x21, 0xd9, 0xbd, 0x55, 0xec, 0x5a, 0xbd,
  0x74, 0x07, 0x20, 0x3d, 0x47, 0xb2, 0xed, 0x3d, 0xa2, 0xbd, 0xc3, 0xbc,
  0xcd, 0x28, 0xb8, 0xbc, 0xa5, 0xc7, 0xc2, 0x3d, 0x24, 0xd1, 0x86, 0x3d,
  0xff, 0x74, 0x5a, 0x3c, 0x16, 0x4f, 0xe6, 0xbd, 0x62, 0xa0, 0x47, 0xbe,
  0x77, 0x33, 0x9a, 0xbd, 0x68, 0x3b, 0x9a, 0xbe, 0xf8, 0xa7, 0xa1, 0xbe,
  0x2d, 0x3e, 0x1b, 0x3d, 0xd2, 0xc2, 0x2f, 0x3e, 0x20, 0xe6, 0x31, 0x3d,
  0xb7, 0x30, 0x41, 0xbe, 0xc2, 0xe8, 0x15, 0x3e, 0x55, 0x9d, 0xf9, 0x3d,
  0x48, 0x7d, 0xca, 0xbd, 0xda, 0xcf, 0x1c, 0xbe, 0x82, 0x02, 0x82, 0x3c,
  0xd7, 0xc5, 0x1f, 0xbe, 0x9c, 0x4e, 0xff, 0xbd, 0x39, 0xb8, 0x8c, 0xbd,
  0x01, 0xe9, 0x23, 0xbe, 0x08, 0x70, 0x2e, 0xbe, 0x76, 0x29, 0x90, 0xbe,
  0xd1, 0xcb, 0x9a, 0xbc, 0x21, 0xa2, 0x96, 0xbd, 0x99, 0xc8, 0x7f, 0xbd,
  0xf7, 0xd0, 0x6b, 0xbd, 0xa7, 0x9a, 0x18, 0xbe, 0x0e, 0xeb, 0xe8, 0xbd,
  0x78, 0xfb, 0x86, 0x3d, 0x00, 0x2b, 0x4d, 0xbe, 0xa8, 0xcc, 0xf9, 0xbc,
  0x83, 0x01, 0x40, 0xbe, 0x55, 0x3f, 0x62, 0xbe, 0x97, 0x7b, 0x35, 0x3e,
  0xb4, 0xa4, 0x93, 0x3d, 0xb1, 0x9a, 0x55, 0xbd, 0x95, 0xdf, 0x9d, 0xbc,
  0x6e, 0x1c, 0x44, 0xbe, 0x5b, 0xac, 0xa2, 0x3d, 0xdb, 0x4e, 0x93, 0x3d,
  0x1d, 0xf0, 0x17, 0xbe, 0xde, 0x0c, 0x70, 0xbc, 0xde, 0x51, 0xff, 0x3b,
  0x4e, 0x5b, 0xc8, 0xbd, 0x52, 0x28, 0x20, 0xbd, 0x08, 0x1c, 0x90, 0xbd,
  0x6e, 0x5c, 0x35, 0x3e, 0x9d, 0xd1, 0x82, 0x3c, 0xf1, 0x1b, 0x6c, 0xbd,
  0xe7, 0x8b, 0xff, 0xbc, 0x4c, 0x62, 0x65, 0x3d, 0x49, 0xa9, 0xf1, 0x3d,
  0xf2, 0x01, 0x92, 0xbe, 0xde, 0x89, 0xd5, 0xbd, 0x75, 0x4b, 0x6c, 0x3a,
  0xc9, 0x96, 0x90, 0xbe, 0x6c, 0x35, 0x3a, 0xbe, 0x25, 0x38, 0xea, 0xbc,
  0x01, 0x59, 0x0a, 0xbd, 0x91, 0xd7, 0xd3, 0xbc, 0x27, 0xbe, 0x17, 0xbe,
  0xa8, 0x52, 0x3f, 0xbd, 0xd6, 0x58, 0xc6, 0xbd, 0xcd, 0x45, 0x01, 0xbe,
  0x2c, 0x51, 0xee, 0xbc, 0x3a, 0x69, 0x76, 0xbd, 0xc1, 0x47, 0xa2, 0x3a,
  0x34, 0x4e, 0x3a, 0x3d, 0x36, 0xec, 0x1e, 0xbc, 0x74, 0x92, 0x05, 0xbe,
  0x2e, 0xe3, 0x3c, 0x3d, 0xd2, 0x41, 0x0e, 0xbe, 0x21, 0xd3, 0xc9, 0x3a,
  0x17, 0x5a, 0xdd, 0xbd, 0x99, 0x30, 0x4e, 0xbe, 0xb3, 0x01, 0xdb, 0xbd,
  0x68, 0x95, 0x63, 0x3d, 0xc6, 0x02, 0x3d, 0xbc, 0xcf, 0x82, 0x4f, 0xbd,
  0x5a, 0xee, 0xbd, 0x3d, 0x99, 0x41, 0x14, 0x3e, 0x92, 0xcf, 0x0d, 0xbe,
  0x88, 0xf7, 0x9a, 0xbc, 0x82, 0x0d, 0x9c, 0x3d, 0x1e, 0xf2, 0x09, 0xbe,
  0xe0, 0x4a, 0x6e, 0xbd, 0x09, 0xbf, 0x79, 0x3c, 0x29, 0x5b, 0x89, 0xbd,
  0x5a, 0xca, 0xf7, 0xbd, 0xd0, 0xfc, 0x6a, 0xbe, 0x5e, 0x09, 0xca, 0xbd,
  0x03, 0xdd, 0xef, 0xbd, 0xfb, 0x6a, 0x78, 0xbd, 0xde, 0x1b, 0x10, 0xbd,
  0x62, 0x6f, 0x3c, 0xbe, 0x9c, 0x63, 0xba, 0x3c, 0x62, 0xab, 0x39, 0xbe,
  0x54, 0x0f, 0xbe, 0xbc, 0xcb, 0x03, 0x4e, 0x3b, 0x26, 0x94, 0x91, 0x3d,
  0xa0, 0x9e, 0x88, 0xbd, 0x5c, 0x67, 0x96, 0xbe, 0x59, 0x9b, 0x4c, 0x3d,
  0xb5, 0x78, 0x3f, 0xbe, 0x7c, 0x78, 0x3a, 0xbe, 0x0f, 0x70, 0xc3, 0xbd,
  0xaa, 0xde, 0x0d, 0xbd, 0x9f, 0xe8, 0x77, 0x3d, 0xa8, 0x76, 0x89, 0xbe,
  0x07, 0xe7, 0xf6, 0xbd, 0xf9, 0x1d, 0x03, 0xbb, 0xbc, 0x57, 0x5c, 0xbe,
  0xaa, 0xa3, 0x33, 0xbe, 0x82, 0xb7, 0xa7, 0x3c, 0x47, 0xea, 0x94, 0x3d,
  0x90, 0xa2, 0x9a, 0xbb, 0x26, 0x1e, 0x18, 0xbe, 0xca, 0x41, 0x27, 0xbd,
  0xa9, 0x22, 0x18, 0xbd, 0x4b, 0xfa, 0x8d, 0xbb, 0xc6, 0x88, 0x0e, 0x3d,
  0x2b, 0xfb, 0xf9, 0xbd, 0xc3, 0x32, 0xb3, 0xbd, 0x19, 0x1f, 0x99, 0x3d,
  0xc1, 0x3c, 0xed, 0x3c, 0xf2, 0xd0, 0x67, 0xbe, 0x48, 0x4c, 0x00, 0xbe,
  0x6b, 0x80, 0x6b, 0xbe, 0x2b, 0x1c, 0x0e, 0xbe, 0x72, 0xfa, 0x86, 0xbd,
  0x21, 0x1f, 0x23, 0xbe, 0x14, 0xfc, 0x0f, 0x3c, 0x11, 0x78, 0x27, 0xbe,
  0xcc, 0x0d, 0x2a, 0xbe, 0x19, 0x9d, 0xe0, 0xbc, 0x63, 0x12, 0x27, 0x3e,
  0xa2, 0xdc, 0xa7, 0xb9, 0x17, 0xd3, 0xbd, 0xbc, 0x1c, 0x29, 0x65, 0xbd,
  0x76, 0x08, 0xf6, 0xbc, 0xa1, 0xdf, 0x12, 0xbd, 0x12, 0x4f, 0x1e, 0x3d,
  0x65, 0x70, 0x09, 0xbe, 0xc0, 0xa0, 0xe5, 0x3d, 0x78, 0x52, 0xd7, 0xbd,
  0x78, 0x1f, 0x0e, 0xbe, 0x3c, 0xa2, 0xa9, 0xbd, 0x70, 0x8d, 0xfa, 0xbb,
  0xf8, 0x79, 0xf8, 0xbd, 0xc7, 0x28, 0xbb, 0x3c, 0x1f, 0xb9, 0x0a, 0xbe,
  0x12, 0x76, 0xf1, 0xbd, 0x88, 0x30, 0x33, 0x3e, 0x2e, 0x9a, 0x61, 0xbd,
  0x76, 0xb6, 0x65, 0xbe, 0x8f, 0x88, 0x86, 0xbe, 0x7b, 0x36, 0x50, 0xbe,
  0x8e, 0x51, 0x28, 0xbe, 0x17, 0x5b, 0x83, 0xbd, 0x97, 0x5e, 0x0e, 0xbe,
  0x3b, 0x34, 0x99, 0xbd, 0xb8, 0x2a, 0x47, 0xbd, 0x1b, 0x92, 0x0a, 0xbe,
  0x84, 0xfd, 0x9e, 0x3d, 0xf5, 0x00, 0x07, 0xbd, 0xb3, 0xb3, 0x90, 0xbc,
  0x2c, 0xa2, 0x32, 0xbd, 0x24, 0xf3, 0x19, 0x3e, 0x66, 0x01, 0x2b, 0xbe,
  0x6d, 0x2b, 0x88, 0xbd, 0x4c, 0x68, 0x2e, 0xbe, 0x21, 0xeb, 0x0e, 0xbe,
  0x59, 0x4c, 0x2d, 0xbe, 0xb5, 0x23, 0xeb, 0xbd, 0x3a, 0x44, 0x4f, 0xbe,
  0x9f, 0x24, 0x79, 0xbe, 0xd8, 0x25, 0x04, 0x3d, 0xc1, 0x11, 0xa7, 0xbd,
  0x49, 0xb6, 0x1b, 0xbe, 0x90, 0xce, 0x29, 0xbd, 0x62, 0xd0, 0x18, 0xbe,
  0xfe, 0x43, 0x95, 0xbb, 0x8d, 0xd6, 0x9c, 0x3d, 0x0b, 0xfc, 0x28, 0xbd,
  0x15, 0xc4, 0x00, 0xbd, 0xa8, 0x42, 0x6d, 0xbc, 0x5c, 0xab, 0x45, 0xbe,
  0x01, 0xa3, 0xb1, 0xbd, 0x9e, 0x02, 0x13, 0xbd, 0x19, 0xfe, 0x8b, 0xbe,
  0xf1, 0xe1, 0x84, 0xbd, 0x74, 0x1f, 0x3f, 0x3d, 0x8d, 0xa5, 0x25, 0x3c,
  0x67, 0x2c, 0xe8, 0xbc, 0x05, 0xb3, 0x23, 0xbd, 0xfb, 0xfb, 0x32, 0xbe,
  0xce, 0xe8, 0x58, 0x3b, 0x43, 0xe4, 0x9e, 0x3d, 0x2d, 0xa3, 0x43, 0xbe,
  0x7b, 0xe9, 0x4a, 0xbe, 0xcd, 0x48, 0x2c, 0xbe, 0x74, 0x25, 0x16, 0xbd,
  0xa3, 0xc0, 0x94, 0xbe, 0x1a, 0x96, 0x66, 0xbe, 0x6c, 0x7b, 0x27, 0xbe,
  0x13, 0x55, 0x67, 0xbe, 0x9e, 0xc8, 0xef, 0x3c, 0x8d, 0x4d, 0x8a, 0xbd,
  0x4c, 0x41, 0xb3, 0xbd, 0xb1, 0xd2, 0x3c, 0xbe, 0x91, 0xc5, 0xd9, 0xbc,
  0xc7, 0x84, 0x29, 0xbd, 0x82, 0x51, 0x93, 0xbe, 0xcb, 0xcd, 0xae, 0xbd,
  0xd0, 0xab, 0x2d, 0xbe, 0x6f, 0x2b, 0x10, 0xbf, 0x84, 0x18, 0xd1, 0xbe,
  0xcb, 0x20, 0x5e, 0x3e, 0x50, 0x29, 0x80, 0xbe, 0x66, 0x81, 0x67, 0xbe,
  0x96, 0xb2, 0x91, 0xbe, 0x11, 0x25, 0x38, 0x3d, 0x20, 0x30, 0xb5, 0xbc,
  0x25, 0xd7, 0x72, 0xbe, 0xdf, 0x74, 0x20, 0x3f, 0xd4, 0x36, 0xfc, 0xbe,
  0x97, 0x5e, 0xda, 0xbd, 0x9c, 0x2e, 0x63, 0x3d, 0x1a, 0xd6, 0xae, 0xbd,
  0x09, 0x64, 0xe0, 0x3e, 0x7a, 0xbb, 0xbe, 0xbd, 0x25, 0xf4, 0xcd, 0xbe,
  0x28, 0xdf, 0x3a, 0xbe, 0xc8, 0x62, 0xce, 0x3d, 0x01, 0x6a, 0xa8, 0xbe,
  0x57, 0x63, 0xb8, 0xbd, 0xbf, 0x7d, 0x72, 0xbe, 0x15, 0xca, 0xe9, 0xbe,
  0xd6, 0x77, 0xf1, 0xbb, 0xa9, 0x66, 0xaa, 0x3d, 0x4a, 0x28, 0xd9, 0x3e,
  0x7b, 0xc3, 0x5a, 0xbe, 0x0c, 0xea, 0x10, 0xbd, 0xc5, 0x88, 0x94, 0x3e,
  0xbc, 0x03, 0x64, 0x3e, 0x15, 0x34, 0xd5, 0x3e, 0xfb, 0x64, 0x6f, 0xbd,
  0xa0, 0x57, 0x95, 0xbe, 0x44, 0xc6, 0x75, 0xbe, 0x7e, 0x56, 0x2a, 0x3e,
  0x4c, 0x71, 0x22, 0xbe, 0x8a, 0x75, 0xc2, 0xbe, 0x55, 0xd3, 0x5f, 0xbe,
  0x65, 0xbd, 0xa0, 0xbe, 0xa1, 0x6f, 0x5c, 0x3d, 0x92, 0x0d, 0x08, 0x3e,
  0x68, 0x88, 0xa3, 0x3e, 0x8e, 0x6e, 0x23, 0xbe, 0xcb, 0xd4, 0xe5, 0x3d,
  0xa0, 0xc0, 0x54, 0x3e, 0xb1, 0x8f, 0x20, 0x3e, 0xf4, 0xb7, 0xc0, 0x3d,
  0xa0, 0xd6, 0x0f, 0x3e, 0x58, 0x3d, 0xbf, 0xbe, 0x88, 0x76, 0xc8, 0xbe,
  0xf9, 0xfb, 0x42, 0x3d, 0x74, 0x68, 0x80, 0xbe, 0xbf, 0x15, 0xd8, 0xbe,
  0x69, 0xa8, 0x1d, 0xbe, 0xf3, 0xf8, 0x00, 0xbf, 0xd3, 0xa8, 0xd2, 0xbd,
  0xd5, 0x34, 0x44, 0xbd, 0xae, 0xb0, 0xc5, 0x3e, 0x9d, 0x08, 0xa7, 0xbe,
  0x8b, 0x4d, 0x0a, 0x3d, 0xe1, 0x0c, 0x73, 0x3e, 0xdb, 0x8b, 0xd7, 0x3d,
  0xa9, 0x1c, 0x3e, 0x3f, 0x11, 0x56, 0x85, 0x3e, 0x0b, 0x9e, 0x9a, 0xbe,
  0x32, 0xeb, 0x33, 0xbe, 0xf1, 0xc7, 0x8c, 0xbd, 0x63, 0x11, 0x57, 0xbe,
  0x83, 0x57, 0xb9, 0xbe, 0x23, 0x4b, 0x9f, 0xbc, 0x83, 0xd8, 0xbb, 0xbe,
  0x0d, 0x4d, 0x1b, 0xbe, 0xc1, 0x83, 0xbd, 0xbd, 0x78, 0xa5, 0x2e, 0x3f,
  0xbc, 0xbf, 0x4e, 0x3d, 0x3c, 0x29, 0x93, 0x3a, 0xb9, 0x6b, 0xf5, 0x3e,
  0x9a, 0xe4, 0x91, 0x3d, 0xce, 0x56, 0xcc, 0x3e, 0xc7, 0x2b, 0x67, 0x3e,
  0xa5, 0xe6, 0xec, 0xbe, 0xdf, 0x90, 0x2b, 0xbe, 0xf5, 0x1f, 0x81, 0x3d,
  0x91, 0x8d, 0x81, 0xbe, 0x64, 0x70, 0xf8, 0x3d, 0x1a, 0x5c, 0x74, 0xbc,
  0x4a, 0x56, 0x5a, 0xbe, 0xef, 0x73, 0x9a, 0xbe, 0xbd, 0x77, 0x33, 0xbe,
  0x66, 0x2e, 0x99, 0x3e, 0x67, 0x72, 0x04, 0x3e, 0x58, 0x08, 0xe3, 0xbd,
  0xad, 0x1f, 0xb7, 0x3e, 0xa7, 0x20, 0x09, 0x3e, 0x72, 0x79, 0x70, 0x3e,
  0x2a, 0x6d, 0x48, 0xbd, 0x20, 0x98, 0xe3, 0xbe, 0x9c, 0xfa, 0x8e, 0xbe,
  0x7d, 0x21, 0x46, 0xbe, 0x89, 0x7d, 0x6f, 0xbe, 0x64, 0x2c, 0xec, 0xbd,
  0x65, 0x81, 0x64, 0xbd, 0xd5, 0x17, 0xd5, 0x3d, 0x73, 0x7a, 0x24, 0x3e,
  0xfa, 0xa3, 0x6e, 0x3b, 0xdd, 0xca, 0x9b, 0x3e, 0x54, 0xf5, 0x08, 0x3e,
  0x0c, 0xa5, 0x1e, 0xbe, 0xc6, 0x43, 0xdb, 0x3e, 0x4e, 0x43, 0x2d, 0x3d,
  0x9f, 0x9e, 0x8b, 0x3e, 0x37, 0xad, 0x88, 0x3e, 0x6c, 0x2f, 0xc2, 0xbd,
  0x2b, 0x49, 0x4d, 0xbd, 0x34, 0x61, 0x18, 0xbe, 0xbc, 0x30, 0x78, 0xbe,
  0x8c, 0x1d, 0x95, 0xbd, 0x9e, 0x03, 0x4c, 0xbe, 0xab, 0xc7, 0x92, 0xbd,
  0x77, 0x89, 0x56, 0xbc, 0x61, 0x51, 0x4c, 0xbe, 0x14, 0xe4, 0x2d, 0xbd,
  0xb2, 0x6d, 0x51, 0xbd, 0xb0, 0xd1, 0xd1, 0xbd, 0x81, 0xcb, 0x32, 0xbe,
  0x53, 0xc5, 0x2d, 0xbd, 0xb5, 0x0f, 0x15, 0xbe, 0x4f, 0xf7, 0x3b, 0xbd,
  0x37, 0x27, 0xfd, 0xbd, 0x76, 0x98, 0x83, 0x3d, 0x96, 0xd8, 0xfe, 0xbd,
  0x73, 0xcb, 0x7e, 0xbe, 0x07, 0x3f, 0xb4, 0x3d, 0xe2, 0x9e, 0x50, 0xbe,
  0x09, 0xa9, 0x5a, 0xbd, 0xf3, 0xfe, 0x09, 0xbd, 0x0a, 0x60, 0x81, 0xbe,
  0x0d, 0x9b, 0xaf, 0xbd, 0x83, 0x13, 0xe9, 0x3c, 0xc9, 0xea, 0x8b, 0x3b,
  0xdd, 0x09, 0x7e, 0xbe, 0x0b, 0x89, 0x57, 0xbe, 0x57, 0x77, 0xeb, 0x3c,
  0xd3, 0xb4, 0x38, 0xbe, 0x46, 0xc9, 0xd3, 0x3d, 0xde, 0x1a, 0xaa, 0xbd,
  0xb4, 0xf5, 0xa7, 0xbd, 0x2a, 0x5c, 0x23, 0xbd, 0x7c, 0x05, 0x6e, 0xbd,
  0xdd, 0xd3, 0x0b, 0xbe, 0x8e, 0x33, 0x44, 0xbe, 0x6a, 0x15, 0x07, 0xbd,
  0x0e, 0xe4, 0x0d, 0xbd, 0x73, 0x47, 0xb5, 0xbd, 0x14, 0x43, 0x0e, 0xbe,
  0x24, 0xb4, 0x12, 0xbe, 0x96, 0x49, 0xf6, 0x3c, 0xbd, 0xec, 0xb0, 0xbc,
  0xb9, 0xba, 0x6f, 0x3c, 0x8b, 0xad, 0x85, 0xbc, 0xf3, 0xf9, 0xaa, 0xbd,
  0x63, 0x27, 0x02, 0xbd, 0xc9, 0x0b, 0x79, 0xbd, 0x80, 0x90, 0x3b, 0xba,
  0x0b, 0x5e, 0x0c, 0x3e, 0xe1, 0xfe, 0xc9, 0xbd, 0xbc, 0xa0, 0xab, 0xbd,
  0x47, 0xad, 0x27, 0xbe, 0x93, 0x54, 0xa0, 0xbd, 0x8d, 0x1a, 0xd0, 0x3d,
  0x45, 0x15, 0x32, 0xbe, 0x82, 0x9d, 0x2e, 0xbe, 0x59, 0xf0, 0x66, 0xbd,
  0xcf, 0x1d, 0xdd, 0xbb, 0x27, 0xd2, 0x11, 0xbe, 0x10, 0xfe, 0x06, 0x3d,
  0xf8, 0x27, 0x13, 0x3e, 0xa5, 0x8b, 0x5e, 0x3d, 0x42, 0x95, 0xaf, 0xbd,
  0xdc, 0xaf, 0x7f, 0xbe, 0xa3, 0x52, 0xd9, 0xbd, 0x26, 0x23, 0x0e, 0xbd,
  0xd5, 0x22, 0x70, 0x3c, 0x97, 0xe1, 0x8e, 0x3d, 0xd5, 0xa6, 0xdd, 0xbc,
  0xb0, 0x2f, 0xb2, 0xbd, 0x4d, 0x5a, 0x45, 0xbc, 0xec, 0x5b, 0x23, 0xbe,
  0x11, 0xd3, 0x1a, 0xbc, 0x62, 0x36, 0x66, 0xbd, 0x3c, 0x33, 0x4e, 0x3d,
  0xb6, 0x99, 0x8f, 0xba, 0x85, 0x37, 0x86, 0x3b, 0x6c, 0x3b, 0x35, 0xbd,
  0x70, 0x92, 0x4f, 0xbe, 0x97, 0x6a, 0x0c, 0xbd, 0xe0, 0xd5, 0x20, 0xbe,
  0x44, 0xfa, 0x0e, 0xbe, 0xfe, 0xd6, 0x96, 0xbb, 0xd2, 0x61, 0xed, 0xbd,
  0xeb, 0x06, 0x13, 0xbd, 0x89, 0x8c, 0xec, 0x3d, 0xcb, 0xbe, 0x77, 0xbe,
  0x8f, 0x43, 0xa0, 0xbd, 0x3a, 0x2b, 0x3f, 0x3d, 0x82, 0xe4, 0xda, 0xbc,
  0x36, 0x43, 0x92, 0x3d, 0x93, 0x4f, 0x87, 0xbe, 0x43, 0x3b, 0x7c, 0xbe,
  0x70, 0x43, 0x06, 0xbe, 0xd4, 0x66, 0x90, 0xbe, 0xa3, 0x71, 0x9a, 0xbe,
  0xa2, 0x3d, 0x47, 0xbe, 0xfa, 0x7d, 0x8d, 0xbe, 0xaf, 0x2c, 0x9f, 0xbe,
  0xe7, 0x6a, 0xdf, 0x3d, 0x90, 0xee, 0x09, 0xbe, 0xdd, 0x72, 0x57, 0xbe,
  0x57, 0x80, 0x51, 0xbe, 0xeb, 0x4f, 0x0e, 0xbd, 0xad, 0xc6, 0x8f, 0xbd,
  0x9f, 0x71, 0x26, 0xbe, 0x45, 0xd0, 0x6e, 0xbd, 0x65, 0x07, 0x90, 0xbe,
  0x8a, 0x55, 0xcc, 0xbe, 0x35, 0x8b, 0x21, 0x3d, 0xbf, 0xd8, 0x2a, 0xbd,
  0xd0, 0x76, 0x2d, 0xbd, 0x4b, 0x98, 0x23, 0x3e, 0x45, 0xe4, 0xc9, 0xbd,
  0xfc, 0xeb, 0x81, 0xbe, 0xb6, 0x11, 0x3d, 0xbe, 0xee, 0x85, 0x55, 0xbe,
  0x66, 0x2a, 0x0a, 0x3f, 0xd3, 0xd2, 0x26, 0xbe, 0x01, 0xd8, 0x95, 0xbe,
  0xa2, 0x07, 0xf8, 0x3e, 0xa4, 0x99, 0x3d, 0x3d, 0x3b, 0x62, 0x87, 0x3e,
  0x2a, 0xef, 0x4b, 0x3e, 0x7d, 0x2d, 0x3c, 0xbe, 0xa9, 0x7a, 0x15, 0xbe,
  0xf4, 0xdf, 0xf2, 0x3d, 0x24, 0x8d, 0x4a, 0x3d, 0xf0, 0x42, 0x95, 0x3e,
  0x49, 0xa8, 0x16, 0xbd, 0x0e, 0x57, 0x8d, 0xbd, 0xc7, 0x26, 0xb0, 0xbd,
  0xa5, 0x92, 0xfc, 0x3d, 0xff, 0xf2, 0x39, 0x3f, 0x8f, 0x34, 0x30, 0x3e,
  0x1c, 0x97, 0x94, 0xbd, 0x19, 0x72, 0x20, 0x3f, 0x47, 0xc4, 0x5a, 0x3e,
  0x40, 0xd5, 0x3e, 0x3e, 0x46, 0x83, 0x90, 0x3e, 0x53, 0xd6, 0x78, 0xbe,
  0xde, 0xd6, 0x76, 0x3d, 0xe2, 0x86, 0x4b, 0xbe, 0x7b, 0x9b, 0x99, 0x3e,
  0xf1, 0x75, 0x29, 0x3e, 0xff, 0xfd, 0x1f, 0x3d, 0x41, 0x6a, 0x43, 0xbe,
  0x8f, 0x4b, 0x08, 0xbe, 0x94, 0x37, 0x4d, 0xbe, 0x52, 0x41, 0x02, 0x3f,
  0x72, 0xf0, 0x14, 0xbd, 0x5f, 0x10, 0x99, 0x3d, 0x50, 0x91, 0x46, 0x3e,
  0x9d, 0x6b, 0x2d, 0x3e, 0x90, 0xcd, 0x75, 0x3e, 0x59, 0x3b, 0x2e, 0xbd,
  0xfb, 0x40, 0xd0, 0xbd, 0x9e, 0x82, 0x10, 0xbe, 0x81, 0x37, 0xd4, 0xbd,
  0xca, 0xe0, 0xae, 0xbd, 0x3f, 0x43, 0x07, 0x3e, 0xc1, 0x40, 0x7e, 0xbe,
  0x36, 0x06, 0x7b, 0xbe, 0x38, 0x3e, 0x95, 0xbc, 0x95, 0x47, 0xc3, 0x3c,
  0x82, 0xad, 0x86, 0x3e, 0x9e, 0x4f, 0x1c, 0xbd, 0x4c, 0xbf, 0x04, 0x3d,
  0xaa, 0x74, 0xd3, 0x3e, 0xff, 0x8d, 0xb5, 0x3e, 0x42, 0x7f, 0xfc, 0x3d,
  0x42, 0x41, 0x09, 0xbd, 0x92, 0x3c, 0xa9, 0xbe, 0xc4, 0x51, 0x53, 0xbe,
  0x8c, 0x3e, 0xab, 0xbe, 0x20, 0xe1, 0xf0, 0x3c, 0x8d, 0x7b, 0x1a, 0x3e,
  0x32, 0x42, 0xaa, 0xbd, 0xbe, 0x78, 0xd3, 0xbd, 0x54, 0xfc, 0x7a, 0x3d,
  0xcc, 0x4a, 0x20, 0xbd, 0x49, 0x1f, 0x54, 0x3d, 0x60, 0x46, 0x44, 0xbe,
  0x60, 0xf7, 0x2e, 0x3c, 0x7e, 0x0d, 0x9f, 0x3e, 0x11, 0xd6, 0x1c, 0x3d,
  0xcb, 0x43, 0x55, 0x3e, 0xef, 0xd8, 0xaa, 0x3d, 0xd5, 0xfc, 0xa0, 0xbe,
  0xc0, 0xc6, 0x4e, 0xbd, 0x1a, 0x36, 0xd8, 0xbd, 0x54, 0xe4, 0x9b, 0xbe,
  0xe1, 0x2a, 0xaa, 0x3d, 0x90, 0xb4, 0x61, 0xbe, 0x8e, 0x10, 0xe9, 0xbd,
  0xb2, 0x85, 0x9c, 0xbc, 0x41, 0xab, 0x48, 0xbd, 0x4c, 0x12, 0xe6, 0x3e,
  0x0e, 0x43, 0xdf, 0xbd, 0xfd, 0x1f, 0x18, 0xbe, 0x1d, 0x51, 0xe4, 0x3e,
  0x5b, 0xbe, 0x3a, 0xbc, 0x43, 0x3d, 0xcb, 0x3e, 0x99, 0xce, 0x01, 0xbe,
  0x1b, 0x65, 0x20, 0xbe, 0x28, 0xa3, 0x5a, 0xbc, 0xcd, 0x46, 0x5f, 0x3d,
  0xc1, 0xd0, 0x6e, 0xbd, 0x13, 0xf0, 0xfa, 0xbd, 0x82, 0x7d, 0x5d, 0xbe,
  0x75, 0x0b, 0x17, 0xbe, 0xf3, 0x58, 0xc7, 0x3d, 0x8a, 0xf4, 0x0a, 0xbd,
  0x6d, 0x1a, 0xb5, 0x3e, 0x41, 0xa3, 0x4b, 0xbe, 0x93, 0x54, 0x10, 0x3d,
  0xac, 0x44, 0x43, 0x3f, 0x40, 0x3e, 0x17, 0x3e, 0x22, 0xfa, 0x30, 0xbe,
  0x9f, 0x7e, 0xbb, 0x3d, 0x5e, 0x46, 0x87, 0xbc, 0xe2, 0xda, 0x81, 0x3e,
  0xaa, 0x04, 0x92, 0x3c, 0x8d, 0xea, 0x49, 0x3d, 0xe5, 0x83, 0x9b, 0x3e,
  0x6f, 0xb5, 0x05, 0x3e, 0xc9, 0xa0, 0x91, 0xbe, 0xb8, 0x87, 0xd5, 0xbd,
  0xce, 0x57, 0x14, 0x3c, 0x47, 0x53, 0x7c, 0xbe, 0xf3, 0x08, 0xa2, 0x3c,
  0xa8, 0x42, 0x01, 0x3e, 0xd3, 0x6c, 0xf6, 0x3c, 0xd8, 0x3b, 0x11, 0xbe,
  0x39, 0x3d, 0x90, 0xbc, 0x3d, 0x7d, 0x2c, 0x3c, 0xd8, 0x98, 0xe2, 0xbd,
  0x7f, 0x0b, 0xd6, 0x3e, 0x68, 0xfb, 0x22, 0xbe, 0x23, 0x0c, 0x7c, 0xbe,
  0xe4, 0x03, 0x99, 0x3e, 0x96, 0xfb, 0x3b, 0x3e, 0xd0, 0xd0, 0x02, 0xbe,
  0x6d, 0x77, 0x6d, 0xbe, 0x08, 0xc3, 0xd5, 0x3d, 0xd6, 0x06, 0x1b, 0xbe,
  0x8c, 0x71, 0xbf, 0x3c, 0x7e, 0xa0, 0x87, 0x3e, 0xe4, 0x63, 0x8f, 0xbe,
  0x38, 0x3e, 0x68, 0xbe, 0xa0, 0xbd, 0xc5, 0xbe, 0x24, 0x2a, 0xe7, 0xbd,
  0x28, 0x74, 0x60, 0x3d, 0xca, 0x8a, 0xf7, 0x3e, 0x5b, 0x51, 0x1d, 0x3e,
  0xf4, 0xf1, 0x0b, 0xbe, 0xa4, 0x02, 0xdf, 0x3d, 0x77, 0xae, 0x1e, 0x3d,
  0x28, 0x64, 0x0d, 0xbe, 0xfe, 0xc0, 0x14, 0xbe, 0x71, 0x6d, 0xdc, 0xbd,
  0x87, 0xc9, 0xea, 0x3d, 0xbe, 0x58, 0x44, 0x3e, 0x5c, 0xc4, 0xf0, 0x3e,
  0x00, 0x91, 0xe1, 0xbe, 0x72, 0x9f, 0xf1, 0xbd, 0x0e, 0x0d, 0x95, 0x3c,
  0xda, 0x7f, 0x6b, 0xbd, 0x6b, 0xdf, 0xed, 0xbd, 0x0e, 0xbb, 0x6f, 0x3e,
  0x66, 0xc5, 0x92, 0x3d, 0xaf, 0x62, 0x2e, 0xbe, 0xac, 0x6d, 0x88, 0x3e,
  0xa4, 0x61, 0x70, 0x3d, 0xff, 0x9c, 0x4c, 0xbe, 0x10, 0xa2, 0xa1, 0xbc,
  0x65, 0x7e, 0xb1, 0x3d, 0x9d, 0x9e, 0x94, 0xbd, 0x0b, 0x8b, 0xf1, 0x3d,
  0xff, 0x73, 0xa1, 0x3e, 0xb9, 0x6b, 0x50, 0xbe, 0x7c, 0xd0, 0xd4, 0xbd,
  0x90, 0x8a, 0x9b, 0xbe, 0x86, 0x89, 0x61, 0xbe, 0x3f, 0xb8, 0x46, 0x3e,
  0x23, 0x64, 0xa7, 0x3e, 0x2a, 0xf6, 0x1f, 0xbe, 0x3f, 0x4a, 0x86, 0xbd,
  0xc6, 0xb7, 0x58, 0x3e, 0x3d, 0xba, 0xce, 0x3d, 0x69, 0xb0, 0xd6, 0xbe,
  0x3b, 0x14, 0xb8, 0xbc, 0xd6, 0xbe, 0x5c, 0xbe, 0x83, 0xab, 0x88, 0xbc,
  0xe4, 0xcf, 0x89, 0x3e, 0x26, 0xd4, 0x21, 0x3e, 0xfb, 0x27, 0x8b, 0xbe,
  0x69, 0x58, 0x0b, 0xbe, 0x5a, 0x80, 0x62, 0xbe, 0x42, 0xc1, 0x13, 0xbe,
  0x12, 0x0c, 0x54, 0x3d, 0x9b, 0xb1, 0xd4, 0x3c, 0x09, 0xb9, 0xe3, 0x3c,
  0x22, 0xee, 0x18, 0xbe, 0xbd, 0xfd, 0x0f, 0x39, 0xdb, 0x6c, 0x88, 0xbe,
  0xb4, 0xf6, 0x4f, 0xbe, 0x61, 0x35, 0xb5, 0xbc, 0x9a, 0xd7, 0xb7, 0xbd,
  0xee, 0x84, 0x20, 0xbe, 0x77, 0x52, 0x85, 0xbe, 0xc1, 0x5d, 0x44, 0xbe,
  0x9d, 0xc7, 0xcc, 0xbd, 0x88, 0x8f, 0x23, 0xbe, 0x34, 0xc6, 0x2c, 0x3c,
  0x1f, 0x01, 0x0e, 0xbe, 0x81, 0x8d, 0x33, 0xbe, 0x85, 0xe0, 0x4d, 0xbe,
  0x11, 0x4a, 0x80, 0xbd, 0x8b, 0x6b, 0x85, 0xbe, 0xb7, 0xdc, 0x0a, 0xbe,
  0xc3, 0x61, 0x71, 0xbd, 0x34, 0x7b, 0x6a, 0xbc, 0x54, 0x03, 0xac, 0xba,
  0x1e, 0x39, 0x3e, 0xbe, 0x3f, 0x5a, 0x4b, 0xbe, 0x78, 0x11, 0x60, 0x3d,
  0xd6, 0x31, 0x8c, 0x3e, 0x08, 0xb6, 0x80, 0xbd, 0x96, 0x9f, 0x8c, 0xbe,
  0x78, 0x66, 0xb8, 0x3c, 0xde, 0xcc, 0xa8, 0xbd, 0xaf, 0xf2, 0x49, 0x3e,
  0x87, 0xed, 0xbb, 0x3e, 0x0d, 0x19, 0x0b, 0xbe, 0x5a, 0xc5, 0xec, 0x3a,
  0xdc, 0xce, 0x8c, 0x3e, 0x0d, 0x30, 0x40, 0x3d, 0xa8, 0xdb, 0x02, 0xbd,
  0x97, 0x14, 0xbf, 0x3c, 0x66, 0x35, 0x84, 0x3b, 0x3a, 0x83, 0x2a, 0xbe,
  0xe1, 0xb6, 0x0f, 0x3e, 0xb7, 0xc6, 0xbd, 0x3e, 0x9a, 0xbf, 0xc9, 0xbd,
  0x04, 0xcc, 0x39, 0xbe, 0x67, 0x1f, 0x9d, 0xbe, 0x85, 0x98, 0xda, 0xbe,
  0xfb, 0x16, 0xd3, 0x3c, 0x77, 0x6a, 0xb5, 0x3e, 0xe8, 0x71, 0x83, 0x3d,
  0x85, 0xa6, 0x79, 0xbd, 0xbb, 0xa8, 0xb8, 0x3d, 0x3b, 0xb2, 0xf6, 0x3d,
  0xb1, 0x91, 0xb5, 0x3c, 0x4b, 0x34, 0x49, 0x3e, 0x05, 0xd8, 0x03, 0xbc,
  0x78, 0x3f, 0x27, 0xbe, 0x1a, 0x31, 0xcf, 0xbe, 0x55, 0xcc, 0x9c, 0xbe,
  0x64, 0x6b, 0xe9, 0xbe, 0x1b, 0xd7, 0x8a, 0xbe, 0xfc, 0xb8, 0xfd, 0xbd,
  0x09, 0xab, 0xa1, 0xbe, 0xf1, 0x6a, 0x65, 0x3d, 0x0f, 0xe2, 0xa1, 0xbd,
  0x7d, 0x43, 0xdb, 0x3e, 0xb8, 0xc8, 0xf4, 0xbd, 0x62, 0xee, 0x50, 0x3d,
  0x75, 0x82, 0x63, 0x3d, 0xa6, 0x4e, 0x80, 0xbd, 0x4f, 0xf9, 0x85, 0xbd,
  0x5b, 0xbb, 0x94, 0xbd, 0x2a, 0xc1, 0xbc, 0x3d, 0xf5, 0xb1, 0x9a, 0x3d,
  0xdb, 0x09, 0x59, 0x3d, 0xce, 0xeb, 0x62, 0xbd, 0xcd, 0x77, 0x9a, 0xbe,
  0x0b, 0xef, 0x8c, 0xbd, 0x76, 0xe6, 0x5b, 0xbe, 0x93, 0x83, 0xb6, 0x3d,
  0x6f, 0xc4, 0x16, 0xbd, 0x55, 0x50, 0x64, 0xbd, 0x8b, 0x9f, 0x0b, 0x3c,
  0xcd, 0x5d, 0x5a, 0xbe, 0xed, 0x4c, 0x37, 0xbe, 0x85, 0x74, 0x37, 0xbe,
  0x22, 0x3c, 0x61, 0x3b, 0xf4, 0x77, 0xa2, 0xbe, 0x1a, 0x15, 0xe5, 0x3d,
  0xb7, 0xcd, 0x49, 0x3d, 0x0f, 0x43, 0x0b, 0xbe, 0x7e, 0x13, 0xfc, 0xbb,
  0x42, 0x73, 0x93, 0xbe, 0x93, 0x9a, 0x7a, 0xbe, 0x1e, 0x87, 0x92, 0xbe,
  0x49, 0xb4, 0xe8, 0x3a, 0x45, 0x0a, 0x02, 0xbe, 0x7d, 0x14, 0x2d, 0xbd,
  0x99, 0x8a, 0x08, 0xbe, 0x5a, 0x74, 0x3d, 0xbd, 0xd1, 0xcf, 0xd0, 0x3c,
  0xb5, 0x71, 0xd6, 0xbc, 0x9a, 0xa6, 0x57, 0xbe, 0x33, 0x94, 0x90, 0xbe,
  0xbe, 0x23, 0x95, 0xbd, 0x3e, 0xb5, 0xb0, 0xbc, 0x21, 0x0d, 0x1e, 0xbe,
  0x63, 0x7a, 0xe4, 0xbd, 0x6d, 0xea, 0x9c, 0x3d, 0x10, 0xc8, 0x8a, 0xbd,
  0xda, 0x72, 0x5b, 0x3d, 0x7f, 0xd7, 0xda, 0xbe, 0x24, 0x51, 0x9a, 0xbc,
  0x72, 0x6b, 0x5f, 0xbe, 0xe5, 0x87, 0xdd, 0xbd, 0xe9, 0x0e, 0x31, 0xbe,
  0x1b, 0xdd, 0x64, 0xbe, 0x8f, 0xaa, 0xf5, 0xbd, 0x0e, 0xa2, 0xf0, 0x3a,
  0x5b, 0x68, 0xf0, 0xbc, 0xbd, 0xe1, 0xcb, 0x3d, 0x91, 0x53, 0x4b, 0xbe,
  0x59, 0x5d, 0x78, 0x3d, 0x02, 0xb3, 0x9e, 0x3d, 0xf0, 0x3e, 0x0b, 0xbc,
  0x59, 0xad, 0x80, 0xbc, 0xb8, 0x83, 0x13, 0x3e, 0x6c, 0xd6, 0x8a, 0xbe,
  0xe6, 0xd3, 0x72, 0xbe, 0x41, 0x88, 0x17, 0xbe, 0x64, 0x47, 0x54, 0xbe,
  0x95, 0xd3, 0x87, 0xbd, 0x65, 0xdc, 0xfa, 0xbd, 0x7e, 0xbb, 0x0b, 0xbe,
  0x1d, 0x3d, 0xd8, 0xbd, 0x8d, 0xad, 0x0f, 0xbe, 0x8d, 0xd1, 0xff, 0xbd,
  0x4e, 0xc4, 0x19, 0xbd, 0x0e, 0xf6, 0x07, 0xbe, 0x8e, 0x10, 0x44, 0x3c,
  0x8a, 0x98, 0x80, 0xbe, 0xd0, 0x64, 0x03, 0x3d, 0xc3, 0x81, 0xab, 0xbe,
  0x50, 0x29, 0xd5, 0xbd, 0x03, 0xae, 0xc3, 0x3d, 0xe8, 0x91, 0xd0, 0xbd,
  0x03, 0xa1, 0x03, 0xbe, 0x5e, 0x7c, 0x53, 0xbe, 0xd9, 0xca, 0x58, 0x3c,
  0xc6, 0x4f, 0x13, 0xbd, 0x58, 0xd4, 0xf2, 0x3c, 0x51, 0x4b, 0xbb, 0x3d,
  0x3b, 0xa8, 0x01, 0x3e, 0x4e, 0xb1, 0x47, 0x3c, 0xed, 0x0d, 0x02, 0x3e,
  0x9b, 0xc9, 0xb0, 0x3d, 0xfd, 0x2a, 0x71, 0xbe, 0x05, 0x68, 0xf8, 0xbd,
  0xec, 0x43, 0x23, 0xbe, 0x55, 0xad, 0x85, 0xbe, 0x0f, 0xa3, 0x02, 0xbe,
  0x83, 0xd2, 0x0a, 0x3d, 0x24, 0xb0, 0xaf, 0xbe, 0xe4, 0xec, 0x08, 0xbe,
  0xd1, 0x98, 0xbb, 0x3c, 0x24, 0xd1, 0x0e, 0xbe, 0xaa, 0xa0, 0x8f, 0x3d,
  0x9a, 0x8a, 0xa1, 0xbd, 0xb7, 0x9a, 0x0d, 0x3e, 0xed, 0x02, 0x72, 0xbe,
  0x90, 0x88, 0x4d, 0x3e, 0x82, 0x39, 0x35, 0xbe, 0x3d, 0x46, 0x44, 0xbe,
  0x82, 0x5c, 0x43, 0x3d, 0xec, 0xf2, 0x62, 0xbe, 0x3f, 0x0d, 0x98, 0x3d,
  0xda, 0xcf, 0xba, 0xbd, 0x99, 0xb4, 0x49, 0xbe, 0x9d, 0x1a, 0x88, 0xbe,
  0x93, 0x23, 0xa4, 0x3d, 0x1c, 0xfa, 0x1d, 0x3e, 0x30, 0x1d, 0xda, 0x3c,
  0x9c, 0x9f, 0x8f, 0xbd, 0x74, 0xe1, 0xc9, 0xbd, 0x46, 0xad, 0x38, 0xbe,
  0x6c, 0x32, 0x1d, 0xbc, 0x72, 0x23, 0x31, 0xbe, 0xd2, 0x71, 0x42, 0xbc,
  0xbb, 0x1a, 0xc0, 0xbe, 0xdb, 0x1b, 0x50, 0x3e, 0x0e, 0xaf, 0x8d, 0xbc,
  0x1a, 0xe1, 0x1f, 0xbe, 0x8a, 0xc8, 0xfa, 0xbc, 0x37, 0x3f, 0x92, 0xbe,
  0x52, 0x4e, 0x8d, 0xbd, 0x40, 0x51, 0x67, 0x3d, 0xe4, 0x51, 0x96, 0xbd,
  0x99, 0xdd, 0x95, 0xbd, 0xee, 0xa4, 0x2c, 0xbe, 0x06, 0xaf, 0x9c, 0xbd,
  0x30, 0x3c, 0x0a, 0xbe, 0xd4, 0x29, 0x04, 0xbc, 0xe4, 0xb7, 0xb6, 0xbd,
  0x25, 0x27, 0x8b, 0xbb, 0xed, 0xa5, 0xb1, 0x3d, 0x61, 0x47, 0xbc, 0x3d,
  0xad, 0x89, 0x3f, 0x3e, 0x79, 0x5a, 0xf5, 0xbd, 0x3d, 0xb4, 0xf5, 0xbd,
  0xb0, 0x2f, 0xc9, 0x3d, 0xf0, 0x0b, 0xca, 0xbe, 0xa1, 0xc1, 0xa1, 0x3c,
  0x08, 0xb7, 0x80, 0x3d, 0xf6, 0x45, 0x7f, 0xbd, 0x08, 0xfb, 0x50, 0xbd,
  0xbf, 0x62, 0x98, 0xbd, 0xe4, 0x69, 0xdb, 0xbd, 0xe2, 0x16, 0xb6, 0x3d,
  0xfb, 0x6b, 0xb4, 0xbb, 0x37, 0xea, 0x17, 0x3e, 0x14, 0x4f, 0x25, 0x3e,
  0x0d, 0x5c, 0xea, 0x3c, 0xab, 0xb8, 0xd8, 0x3d, 0xfe, 0xc6, 0x53, 0xbe,
  0x7b, 0x72, 0x9c, 0x3d, 0xac, 0x6b, 0x1f, 0x3d, 0xf1, 0x31, 0xa0, 0xbe,
  0xfa, 0x0b, 0x85, 0xbd, 0xed, 0x0f, 0x41, 0xbe, 0x1c, 0x5c, 0x4d, 0xbe,
  0x28, 0x47, 0xa8, 0x3c, 0x25, 0xc6, 0x53, 0x3d, 0x49, 0xa4, 0x67, 0xbe,
  0xee, 0xfa, 0x28, 0xbe, 0x7c, 0xe2, 0x66, 0xbe, 0x7f, 0xd2, 0x35, 0xbd,
  0x01, 0x2b, 0x16, 0xbe, 0x75, 0x31, 0x2b, 0xbe, 0x32, 0x72, 0x0a, 0x3e,
  0xa8, 0xd0, 0xe4, 0x3d, 0xe7, 0x4d, 0xc6, 0x3b, 0x35, 0xa3, 0x88, 0xbe,
  0xed, 0x4a, 0xf9, 0x3d, 0xf6, 0x58, 0xfc, 0xbd, 0x75, 0x1d, 0x24, 0xbe,
  0x0f, 0xda, 0x71, 0xbe, 0x13, 0x39, 0xb3, 0x3a, 0x29, 0x16, 0x81, 0xbe,
  0x7c, 0xb9, 0x30, 0x3e, 0x6d, 0xcb, 0x66, 0xbe, 0x23, 0xf1, 0x68, 0xbd,
  0xff, 0xbf, 0x57, 0xbe, 0x18, 0x03, 0xe7, 0xbd, 0x9d, 0x80, 0x8f, 0x3d,
  0x1c, 0x5c, 0x0b, 0xbe, 0x22, 0xcb, 0xa1, 0xbd, 0x81, 0x03, 0x9d, 0xbe,
  0xe5, 0x7c, 0xab, 0x3e, 0xa5, 0xca, 0xfb, 0xbd, 0x91, 0xe8, 0x31, 0x3e,
  0x52, 0x37, 0x66, 0xbe, 0xda, 0xb0, 0xda, 0xbb, 0x16, 0xab, 0x74, 0x3c,
  0x5c, 0x5a, 0xd3, 0xbe, 0xc7, 0xae, 0x5f, 0x3e, 0x1d, 0x18, 0x71, 0xbd,
  0x72, 0x58, 0xdc, 0xbd, 0x3d, 0x2a, 0x0e, 0x3f, 0x04, 0x45, 0x83, 0x3d,
  0xc0, 0xab, 0x6c, 0x3e, 0xf0, 0xae, 0x1e, 0x3e, 0x5f, 0xdc, 0x8d, 0xbe,
  0x9c, 0x2c, 0xc8, 0xbe, 0x02, 0x2a, 0x0d, 0xbd, 0xdf, 0x5d, 0x8a, 0xbe,
  0x71, 0x72, 0x9c, 0x3d, 0x60, 0x25, 0x49, 0x3d, 0x1b, 0x92, 0xcd, 0x3d,
  0xdc, 0x00, 0x2b, 0xbe, 0x4c, 0x5f, 0xbb, 0xbd, 0x0e, 0x1d, 0xb9, 0x3e,
  0x36, 0xdc, 0x47, 0x3d, 0x05, 0x93, 0xa9, 0x3d, 0x79, 0x85, 0x0c, 0x3f,
  0x57, 0x32, 0x01, 0xbe, 0x4b, 0xfb, 0x88, 0xbd, 0x64, 0x9a, 0xec, 0x3d,
  0x53, 0xee, 0xad, 0xbe, 0xba, 0x58, 0xb1, 0xbc, 0x8b, 0x5c, 0x1c, 0xbe,
  0x37, 0x4d, 0x8b, 0xbe, 0x79, 0x89, 0x11, 0x3b, 0xab, 0x7f, 0xc8, 0xbd,
  0x44, 0xcd, 0xb4, 0x3c, 0x7d, 0xd6, 0x67, 0xbe, 0x62, 0xf6, 0xe3, 0xbb,
  0xc9, 0xad, 0x86, 0x3e, 0xf1, 0xd0, 0xc1, 0x3d, 0x85, 0xaa, 0x5c, 0x3e,
  0xd4, 0xe1, 0xd3, 0x3e, 0x7e, 0x16, 0xb8, 0xbd, 0x5b, 0x0a, 0xb7, 0x3d,
  0x9f, 0x5e, 0x5e, 0x3d, 0xbb, 0x9e, 0xc5, 0xbd, 0x2f, 0x20, 0x5f, 0xbe,
  0x8b, 0xb5, 0xfe, 0xbd, 0xf8, 0xa4, 0xca, 0xbe, 0x19, 0x12, 0x24, 0x3e,
  0xc1, 0xf6, 0xc3, 0x3d, 0x8c, 0xaf, 0xf4, 0xbd, 0x56, 0x06, 0x91, 0xbe,
  0x8a, 0xb7, 0xf5, 0x3d, 0x18, 0xaa, 0xae, 0x3d, 0xd7, 0xa3, 0xbc, 0xbc,
  0xdf, 0x9c, 0xbf, 0x3d, 0x18, 0x40, 0x1a, 0x3f, 0xef, 0xa2, 0x54, 0x3d,
  0xa3, 0xcf, 0xa2, 0x3d, 0x91, 0xd3, 0xfb, 0x3c, 0x8b, 0xfd, 0x49, 0xbe,
  0xca, 0x46, 0x0c, 0xbe, 0x86, 0xad, 0x08, 0xbe, 0x64, 0xb4, 0xe3, 0xbe,
  0xd7, 0x04, 0x81, 0x3c, 0x1f, 0xad, 0xc2, 0xba, 0x65, 0xce, 0xde, 0x3c,
  0xc0, 0xdf, 0x66, 0x3d, 0x4b, 0xc9, 0x1a, 0xbe, 0x1e, 0x39, 0x5a, 0x3e,
  0x39, 0xda, 0x2e, 0x3e, 0x20, 0x2c, 0x92, 0x3e, 0x4d, 0x0e, 0xb2, 0x3e,
  0xea, 0x60, 0x16, 0xbe, 0x44, 0xb9, 0x64, 0x3d, 0x23, 0xdd, 0x4f, 0xbe,
  0x0b, 0x96, 0x6b, 0xbe, 0x77, 0x07, 0x1d, 0xbe, 0x45, 0x1c, 0x5a, 0xbe,
  0x93, 0x48, 0x64, 0xbe, 0xf0, 0x8e, 0x56, 0x3d, 0x7d, 0x45, 0x42, 0xbe,
  0x5a, 0x8b, 0x89, 0x3d, 0xd1, 0xd7, 0x02, 0xbe, 0x6f, 0x58, 0x9b, 0xbe,
  0x72, 0x8a, 0x96, 0x3e, 0x9a, 0x35, 0xaa, 0xbb, 0x27, 0xd4, 0x89, 0x3b,
  0x34, 0xd8, 0x21, 0x3f, 0xee, 0xb4, 0xc4, 0xbd, 0xf3, 0xc5, 0x04, 0x3e,
  0xc8, 0xc1, 0xab, 0x3d, 0xb6, 0xcd, 0xfa, 0xbd, 0x58, 0xb0, 0xf3, 0xbd,
  0xeb, 0x05, 0x79, 0xbe, 0xfb, 0x6f, 0xa2, 0xbe, 0xe5, 0xa6, 0xf2, 0x3d,
  0xcc, 0xd6, 0x1d, 0xbe, 0x5e, 0xc7, 0x26, 0x3e, 0x08, 0xb5, 0xbe, 0x3e,
  0xfe, 0x56, 0x9c, 0xbe, 0xcd, 0x37, 0xa2, 0x3d, 0xf2, 0x26, 0x25, 0xbd,
  0x60, 0xc5, 0x53, 0xbe, 0x7f, 0x9b, 0xea, 0x3e, 0xb9, 0x97, 0x06, 0xbe,
  0x32, 0xa6, 0x8c, 0x3b, 0xe3, 0xac, 0x9e, 0x3d, 0x4a, 0xfe, 0xff, 0xff,
  0x10, 0x00, 0x00, 0x00, 0x05, 0x00, 0x00, 0x00, 0x14, 0x00, 0x00, 0x00,
  0x2c, 0x00, 0x00, 0x00, 0x02, 0x00, 0x00, 0x00, 0x10, 0x00, 0x00, 0x00,
  0x70, 0x00, 0x00, 0x00, 0x17, 0x00, 0x00, 0x00, 0x73, 0x65, 0x71, 0x75,
  0x65, 0x6e, 0x74, 0x69, 0x61, 0x6c, 0x2f, 0x64, 0x65, 0x6e, 0x73, 0x65,
  0x2f, 0x4d, 0x61, 0x74, 0x4d, 0x75, 0x6c, 0x00, 0x38, 0xfe, 0xff, 0xff,
  0x2e, 0xff, 0xff, 0xff, 0x04, 0x00, 0x00, 0x00, 0x08, 0x00, 0x00, 0x00,
  0xff, 0xff, 0xff, 0xff, 0x70, 0x00, 0x00, 0x00, 0x00, 0x00, 0x0e, 0x00,
  0x18, 0x00, 0x08, 0x00, 0x07, 0x00, 0x0c, 0x00, 0x10, 0x00, 0x14, 0x00,
  0x0e, 0x00, 0x00, 0x00, 0x00, 0x00, 0x00, 0x02, 0x10, 0x00, 0x00, 0x00,
  0x04, 0x00, 0x00, 0x00, 0x10, 0x00, 0x00, 0x00, 0x2c, 0x00, 0x00, 0x00,
  0x01, 0x00, 0x00, 0x00, 0x02, 0x00, 0x00, 0x00, 0x18, 0x00, 0x00, 0x00,
  0x73, 0x65, 0x71, 0x75, 0x65, 0x6e, 0x74, 0x69, 0x61, 0x6c, 0x2f, 0x66,
  0x6c, 0x61, 0x74, 0x74, 0x65, 0x6e, 0x2f, 0x43, 0x6f, 0x6e, 0x73, 0x74,
  0x00, 0x00, 0x00, 0x00, 0xa0, 0xfe, 0xff, 0xff, 0x96, 0xff, 0xff, 0xff,
  0x04, 0x00, 0x00, 0x00, 0x0c, 0x00, 0x00, 0x00, 0xd2, 0xef, 0x24, 0xc0,
  0x00, 0x29, 0x16, 0xc0, 0x57, 0x8c, 0x2e, 0x40, 0x0a, 0xff, 0xff, 0xff,
  0x10, 0x00, 0x00, 0x00, 0x03, 0x00, 0x00, 0x00, 0x10, 0x00, 0x00, 0x00,
  0x3c, 0x00, 0x00, 0x00, 0x01, 0x00, 0x00, 0x00, 0x03, 0x00, 0x00, 0x00,
  0x29, 0x00, 0x00, 0x00, 0x73, 0x65, 0x71, 0x75, 0x65, 0x6e, 0x74, 0x69,
  0x61, 0x6c, 0x2f, 0x64, 0x65, 0x6e, 0x73, 0x65, 0x5f, 0x31, 0x2f, 0x42,
  0x69, 0x61, 0x73, 0x41, 0x64, 0x64, 0x2f, 0x52, 0x65, 0x61, 0x64, 0x56,
  0x61, 0x72, 0x69, 0x61, 0x62, 0x6c, 0x65, 0x4f, 0x70, 0x00, 0x00, 0x00,
  0x60, 0xff, 0xff, 0xff, 0x00, 0x00, 0x06, 0x00, 0x08, 0x00, 0x04, 0x00,
  0x06, 0x00, 0x00, 0x00, 0x04, 0x00, 0x00, 0x00, 0x40, 0x00, 0x00, 0x00,
  0xd8, 0x53, 0x76, 0xbf, 0x2b, 0x7b, 0xbb, 0x3e, 0x3c, 0x0f, 0x00, 0xbf,
  0x9a, 0xbd, 0xcd, 0xbf, 0xe3, 0x67, 0x8b, 0xbf, 0x35, 0xaa, 0x0a, 0xc0,
  0xef, 0xc0, 0x86, 0xbe, 0x55, 0x85, 0xaa, 0xbe, 0x8d, 0x80, 0xc0, 0xbe,
  0x95, 0xcb, 0x27, 0x3f, 0x0f, 0xf6, 0xa6, 0xbe, 0xf6, 0xce, 0xb1, 0xbd,
  0x5f, 0xf1, 0x0f, 0xbf, 0x69, 0xa3, 0x5d, 0xbf, 0xe5, 0xb1, 0x79, 0xbd,
  0x73, 0x90, 0x2e, 0x3f, 0xae, 0xff, 0xff, 0xff, 0x10, 0x00, 0x00, 0x00,
  0x02, 0x00, 0x00, 0x00, 0x10, 0x00, 0x00, 0x00, 0x3c, 0x00, 0x00, 0x00,
  0x01, 0x00, 0x00, 0x00, 0x10, 0x00, 0x00, 0x00, 0x27, 0x00, 0x00, 0x00,
  0x73, 0x65, 0x71, 0x75, 0x65, 0x6e, 0x74, 0x69, 0x61, 0x6c, 0x2f, 0x64,
  0x65, 0x6e, 0x73, 0x65, 0x2f, 0x42, 0x69, 0x61, 0x73, 0x41, 0x64, 0x64,
  0x2f, 0x52, 0x65, 0x61, 0x64, 0x56, 0x61, 0x72, 0x69, 0x61, 0x62, 0x6c,
  0x65, 0x4f, 0x70, 0x00, 0x04, 0x00, 0x06, 0x00, 0x04, 0x00, 0x00, 0x00,
  0x00, 0x00, 0x0e, 0x00, 0x14, 0x00, 0x04, 0x00, 0x00, 0x00, 0x08, 0x00,
  0x0c, 0x00, 0x10, 0x00, 0x0e, 0x00, 0x00, 0x00, 0x10, 0x00, 0x00, 0x00,
  0x01, 0x00, 0x00, 0x00, 0x1c, 0x00, 0x00, 0x00, 0x2c, 0x00, 0x00, 0x00,
  0x04, 0x00, 0x00, 0x00, 0x01, 0x00, 0x00, 0x00, 0x40, 0x00, 0x00, 0x00,
  0x03, 0x00, 0x00, 0x00, 0x01, 0x00, 0x00, 0x00, 0x0c, 0x00, 0x00, 0x00,
  0x63, 0x6f, 0x6e, 0x76, 0x32, 0x64, 0x5f, 0x69, 0x6e, 0x70, 0x75, 0x74,
  0x00, 0x00, 0x00, 0x00, 0xfc, 0xff, 0xff, 0xff, 0x04, 0x00, 0x04, 0x00,
  0x04, 0x00, 0x00, 0x00



  // Paste the data of the char array in `src/model.cc` here

};


unsigned int model_tflite_len = 12316;// Fill the int in `src/model.cc` here