#include "magic_wand_model_data.h"


// We need to keep the data array aligned on some architectures.

#ifdef __has_attribute

#define HAVE_ATTRIBUTE(x) __has_attribute(x)

#else

#define HAVE_ATTRIBUTE(x) 0

#endif

#if HAVE_ATTRIBUTE(aligned) || (defined(__GNUC__) && !defined(__clang__))

#define DATA_ALIGN_ATTRIBUTE __attribute__((aligned(4)))

#else

#define DATA_ALIGN_ATTRIBUTE

#endif


const unsigned char g_magic_wand_model_data[] DATA_ALIGN_ATTRIBUTE = {

  
  0x08, 0x00, 0x00, 0x00, 0x54, 0x46, 0x4c, 0x33, 0x62, 0xff, 0xff, 0xff,
  0x03, 0x00, 0x00, 0x00, 0x10, 0x00, 0x00, 0x00, 0x24, 0x00, 0x00, 0x00,
  0x78, 0x00, 0x00, 0x00, 0x24, 0x00, 0x00, 0x00, 0x05, 0x00, 0x00, 0x00,
  0x78, 0x05, 0x00, 0x00, 0xb0, 0x04, 0x00, 0x00, 0xe0, 0x02, 0x00, 0x00,
  0x60, 0x02, 0x00, 0x00, 0x54, 0x01, 0x00, 0x00, 0x01, 0x00, 0x00, 0x00,
  0x78, 0x00, 0x00, 0x00, 0x13, 0x00, 0x00, 0x00, 0x90, 0x2f, 0x00, 0x00,
  0x8c, 0x2f, 0x00, 0x00, 0x98, 0x2e, 0x00, 0x00, 0x28, 0x2e, 0x00, 0x00,
  0xbc, 0x2d, 0x00, 0x00, 0x6c, 0x11, 0x00, 0x00, 0x98, 0x10, 0x00, 0x00,
  0xbc, 0x0e, 0x00, 0x00, 0x60, 0x06, 0x00, 0x00, 0xfc, 0x05, 0x00, 0x00,
  0x78, 0x05, 0x00, 0x00, 0x64, 0x2f, 0x00, 0x00, 0x60, 0x2f, 0x00, 0x00,
  0x5c, 0x2f, 0x00, 0x00, 0x58, 0x2f, 0x00, 0x00, 0x54, 0x2f, 0x00, 0x00,
  0x50, 0x2f, 0x00, 0x00, 0x4c, 0x2f, 0x00, 0x00, 0x48, 0x2f, 0x00, 0x00,
  0x0f, 0x00, 0x00, 0x00, 0x4d, 0x4c, 0x49, 0x52, 0x20, 0x43, 0x6f, 0x6e,
  0x76, 0x65, 0x72, 0x74, 0x65, 0x64, 0x2e, 0x00, 0x00, 0x00, 0x0e, 0x00,
  0x18, 0x00, 0x04, 0x00, 0x08, 0x00, 0x0c, 0x00, 0x10, 0x00, 0x14, 0x00,
  0x0e, 0x00, 0x00, 0x00, 0x14, 0x00, 0x00, 0x00, 0x5c, 0x00, 0x00, 0x00,
  0x60, 0x00, 0x00, 0x00, 0x64, 0x00, 0x00, 0x00, 0x84, 0x00, 0x00, 0x00,
  0x12, 0x00, 0x00, 0x00, 0xc0, 0x2e, 0x00, 0x00, 0x5c, 0x2e, 0x00, 0x00,
  0xb4, 0x2d, 0x00, 0x00, 0x58, 0x2d, 0x00, 0x00, 0xf0, 0x2c, 0x00, 0x00,
  0x9c, 0x10, 0x00, 0x00, 0xc0, 0x0f, 0x00, 0x00, 0xe4, 0x0d, 0x00, 0x00,
  0xa0, 0x05, 0x00, 0x00, 0x3c, 0x05, 0x00, 0x00, 0xb0, 0x04, 0x00, 0x00,
  0xe8, 0x03, 0x00, 0x00, 0x38, 0x03, 0x00, 0x00, 0xa4, 0x02, 0x00, 0x00,
  0x10, 0x02, 0x00, 0x00, 0x90, 0x01, 0x00, 0x00, 0xfc, 0x00, 0x00, 0x00,
  0x80, 0x00, 0x00, 0x00, 0x01, 0x00, 0x00, 0x00, 0x00, 0x00, 0x00, 0x00,
  0x01, 0x00, 0x00, 0x00, 0x11, 0x00, 0x00, 0x00, 0x08, 0x00, 0x00, 0x00,
  0x1c, 0x04, 0x00, 0x00, 0x58, 0x03, 0x00, 0x00, 0xc8, 0x02, 0x00, 0x00,
  0x24, 0x02, 0x00, 0x00, 0xac, 0x01, 0x00, 0x00, 0x10, 0x01, 0x00, 0x00,
  0x94, 0x00, 0x00, 0x00, 0x10, 0x00, 0x00, 0x00, 0x04, 0x00, 0x00, 0x00,
  0x6d, 0x61, 0x69, 0x6e, 0x00, 0x00, 0x00, 0x00, 0x8e, 0xff, 0xff, 0xff,
  0x00, 0x00, 0x00, 0x09, 0x04, 0x00, 0x00, 0x00, 0x1c, 0x00, 0x00, 0x00,
  0x10, 0x00, 0x00, 0x00, 0x04, 0x00, 0x00, 0x00, 0x92, 0xd2, 0xff, 0xff,
  0x00, 0x00, 0x80, 0x3f, 0x01, 0x00, 0x00, 0x00, 0x11, 0x00, 0x00, 0x00,
  0x01, 0x00, 0x00, 0x00, 0x10, 0x00, 0x00, 0x00, 0xf6, 0xfb, 0xff, 0xff,
  0x00, 0x00, 0x00, 0x19, 0x01, 0x00, 0x00, 0x00, 0x12, 0xd2, 0xff, 0xff,
  0x10, 0x00, 0x00, 0x00, 0x12, 0x00, 0x00, 0x00, 0x14, 0x00, 0x00, 0x00,
  0x20, 0x00, 0x00, 0x00, 0x02, 0x00, 0x00, 0x00, 0x01, 0x00, 0x00, 0x00,
  0x02, 0x00, 0x00, 0x00, 0x08, 0x00, 0x00, 0x00, 0x49, 0x64, 0x65, 0x6e,
  0x74, 0x69, 0x74, 0x79, 0x00, 0x00, 0x00, 0x00, 0x4c, 0xd2, 0xff, 0xff,
  0x00, 0x00, 0x0e, 0x00, 0x18, 0x00, 0x08, 0x00, 0x0c, 0x00, 0x10, 0x00,
  0x07, 0x00, 0x14, 0x00, 0x0e, 0x00, 0x00, 0x00, 0x00, 0x00, 0x00, 0x08,
  0x03, 0x00, 0x00, 0x00, 0x18, 0x00, 0x00, 0x00, 0x0c, 0x00, 0x00, 0x00,
  0x04, 0x00, 0x00, 0x00, 0x20, 0xd2, 0xff, 0xff, 0x01, 0x00, 0x00, 0x00,
  0x10, 0x00, 0x00, 0x00, 0x03, 0x00, 0x00, 0x00, 0x0f, 0x00, 0x00, 0x00,
  0x05, 0x00, 0x00, 0x00, 0x02, 0x00, 0x00, 0x00, 0x8a, 0xd2, 0xff, 0xff,
  0x10, 0x00, 0x00, 0x00, 0x11, 0x00, 0x00, 0x00, 0x14, 0x00, 0x00, 0x00,
  0x30, 0x00, 0x00, 0x00, 0x02, 0x00, 0x00, 0x00, 0x01, 0x00, 0x00, 0x00,
  0x02, 0x00, 0x00, 0x00, 0x1a, 0x00, 0x00, 0x00, 0x73, 0x65, 0x71, 0x75,
  0x65, 0x6e, 0x74, 0x69, 0x61, 0x6c, 0x2f, 0x64, 0x65, 0x6e, 0x73, 0x65,
  0x5f, 0x31, 0x2f, 0x42, 0x69, 0x61, 0x73, 0x41, 0x64, 0x64, 0x00, 0x00,
  0x7c, 0xd2, 0xff, 0xff, 0xd6, 0xfd, 0xff, 0xff, 0x00, 0x00, 0x00, 0x08,
  0x03, 0x00, 0x00, 0x00, 0x24, 0x00, 0x00, 0x00, 0x18, 0x00, 0x00, 0x00,
  0x0c, 0x00, 0x00, 0x00, 0x00, 0x00, 0x06, 0x00, 0x08, 0x00, 0x07, 0x00,
  0x06, 0x00, 0x00, 0x00, 0x00, 0x00, 0x00, 0x01, 0x01, 0x00, 0x00, 0x00,
  0x0f, 0x00, 0x00, 0x00, 0x03, 0x00, 0x00, 0x00, 0x0e, 0x00, 0x00, 0x00,
  0x04, 0x00, 0x00, 0x00, 0x01, 0x00, 0x00, 0x00, 0xfe, 0xfc, 0xff, 0xff,
  0x00, 0x00, 0x00, 0x09, 0x01, 0x00, 0x00, 0x00, 0x1a, 0xd3, 0xff, 0xff,
  0x10, 0x00, 0x00, 0x00, 0x10, 0x00, 0x00, 0x00, 0x14, 0x00, 0x00, 0x00,
  0x2c, 0x00, 0x00, 0x00, 0x02, 0x00, 0x00, 0x00, 0x01, 0x00, 0x00, 0x00,
  0x10, 0x00, 0x00, 0x00, 0x15, 0x00, 0x00, 0x00, 0x73, 0x65, 0x71, 0x75,
  0x65, 0x6e, 0x74, 0x69, 0x61, 0x6c, 0x2f, 0x64, 0x65, 0x6e, 0x73, 0x65,
  0x2f, 0x52, 0x65, 0x6c, 0x75, 0x00, 0x00, 0x00, 0x60, 0xd3, 0xff, 0xff,
  0x00, 0x00, 0x0a, 0x00, 0x10, 0x00, 0x04, 0x00, 0x08, 0x00, 0x0c, 0x00,
  0x0a, 0x00, 0x00, 0x00, 0x02, 0x00, 0x00, 0x00, 0x10, 0x00, 0x00, 0x00,
  0x04, 0x00, 0x00, 0x00, 0x01, 0x00, 0x00, 0x00, 0x0e, 0x00, 0x00, 0x00,
  0x02, 0x00, 0x00, 0x00, 0x0d, 0x00, 0x00, 0x00, 0x03, 0x00, 0x00, 0x00,
  0x7a, 0xfd, 0xff, 0xff, 0x00, 0x00, 0x00, 0x16, 0x01, 0x00, 0x00, 0x00,
  0x96, 0xd3, 0xff, 0xff, 0x10, 0x00, 0x00, 0x00, 0x0f, 0x00, 0x00, 0x00,
  0x14, 0x00, 0x00, 0x00, 0x30, 0x00, 0x00, 0x00, 0x02, 0x00, 0x00, 0x00,
  0x01, 0x00, 0x00, 0x00, 0x70, 0x00, 0x00, 0x00, 0x1a, 0x00, 0x00, 0x00,
  0x73, 0x65, 0x71, 0x75, 0x65, 0x6e, 0x74, 0x69, 0x61, 0x6c, 0x2f, 0x66,
  0x6c, 0x61, 0x74, 0x74, 0x65, 0x6e, 0x2f, 0x52, 0x65, 0x73, 0x68, 0x61,
  0x70, 0x65, 0x00, 0x00, 0x88, 0xd3, 0xff, 0xff, 0xe2, 0xfe, 0xff, 0xff,
  0x00, 0x00, 0x00, 0x05, 0x01, 0x00, 0x00, 0x00, 0x38, 0x00, 0x00, 0x00,
  0x2c, 0x00, 0x00, 0x00, 0x14, 0x00, 0x00, 0x00, 0x00, 0x00, 0x0e, 0x00,
  0x14, 0x00, 0x00, 0x00, 0x10, 0x00, 0x0c, 0x00, 0x08, 0x00, 0x04, 0x00,
  0x0e, 0x00, 0x00, 0x00, 0x03, 0x00, 0x00, 0x00, 0x01, 0x00, 0x00, 0x00,
  0x03, 0x00, 0x00, 0x00, 0x01, 0x00, 0x00, 0x00, 0x01, 0x00, 0x00, 0x00,
  0x0d, 0x00, 0x00, 0x00, 0x01, 0x00, 0x00, 0x00, 0x0c, 0x00, 0x00, 0x00,
  0x26, 0xd4, 0xff, 0xff, 0x10, 0x00, 0x00, 0x00, 0x0e, 0x00, 0x00, 0x00,
  0x1c, 0x00, 0x00, 0x00, 0x40, 0x00, 0x00, 0x00, 0x04, 0x00, 0x00, 0x00,
  0x01, 0x00, 0x00, 0x00, 0x07, 0x00, 0x00, 0x00, 0x01, 0x00, 0x00, 0x00,
  0x10, 0x00, 0x00, 0x00, 0x22, 0x00, 0x00, 0x00, 0x73, 0x65, 0x71, 0x75,
  0x65, 0x6e, 0x74, 0x69, 0x61, 0x6c, 0x2f, 0x6d, 0x61, 0x78, 0x5f, 0x70,
  0x6f, 0x6f, 0x6c, 0x69, 0x6e, 0x67, 0x32, 0x64, 0x5f, 0x31, 0x2f, 0x4d,
  0x61, 0x78, 0x50, 0x6f, 0x6f, 0x6c, 0x00, 0x00, 0x28, 0xd4, 0xff, 0xff,
  0xc2, 0xfe, 0xff, 0xff, 0x00, 0x00, 0x00, 0x01, 0x24, 0x00, 0x00, 0x00,
  0x18, 0x00, 0x00, 0x00, 0x04, 0x00, 0x00, 0x00, 0xb4, 0xfe, 0xff, 0xff,
  0x01, 0x00, 0x00, 0x00, 0x01, 0x00, 0x00, 0x00, 0x00, 0x00, 0x00, 0x01,
  0x01, 0x00, 0x00, 0x00, 0x0c, 0x00, 0x00, 0x00, 0x03, 0x00, 0x00, 0x00,
  0x0b, 0x00, 0x00, 0x00, 0x07, 0x00, 0x00, 0x00, 0x09, 0x00, 0x00, 0x00,
  0xb6, 0xd4, 0xff, 0xff, 0x10, 0x00, 0x00, 0x00, 0x0d, 0x00, 0x00, 0x00,
  0x1c, 0x00, 0x00, 0x00, 0x2c, 0x00, 0x00, 0x00, 0x04, 0x00, 0x00, 0x00,
  0x01, 0x00, 0x00, 0x00, 0x15, 0x00, 0x00, 0x00, 0x01, 0x00, 0x00, 0x00,
  0x10, 0x00, 0x00, 0x00, 0x0c, 0x00, 0x00, 0x00, 0x74, 0x66, 0x6c, 0x2e,
  0x63, 0x6f, 0x6e, 0x76, 0x5f, 0x32, 0x64, 0x31, 0x00, 0x00, 0x00, 0x00,
  0xfc, 0xd4, 0xff, 0xff, 0x00, 0x00, 0x0e, 0x00, 0x1a, 0x00, 0x08, 0x00,
  0x0c, 0x00, 0x10, 0x00, 0x07, 0x00, 0x14, 0x00, 0x0e, 0x00, 0x00, 0x00,
  0x00, 0x00, 0x00, 0x05, 0x01, 0x00, 0x00, 0x00, 0x3c, 0x00, 0x00, 0x00,
  0x30, 0x00, 0x00, 0x00, 0x14, 0x00, 0x00, 0x00, 0x00, 0x00, 0x0e, 0x00,
  0x18, 0x00, 0x17, 0x00, 0x10, 0x00, 0x0c, 0x00, 0x08, 0x00, 0x04, 0x00,
  0x0e, 0x00, 0x00, 0x00, 0x03, 0x00, 0x00, 0x00, 0x03, 0x00, 0x00, 0x00,
  0x03, 0x00, 0x00, 0x00, 0x03, 0x00, 0x00, 0x00, 0x00, 0x00, 0x00, 0x01,
  0x01, 0x00, 0x00, 0x00, 0x0b, 0x00, 0x00, 0x00, 0x01, 0x00, 0x00, 0x00,
  0x0a, 0x00, 0x00, 0x00, 0x46, 0xff, 0xff, 0xff, 0x00, 0x00, 0x00, 0x11,
  0x01, 0x00, 0x00, 0x00, 0x62, 0xd5, 0xff, 0xff, 0x10, 0x00, 0x00, 0x00,
  0x0c, 0x00, 0x00, 0x00, 0x1c, 0x00, 0x00, 0x00, 0x40, 0x00, 0x00, 0x00,
  0x04, 0x00, 0x00, 0x00, 0x01, 0x00, 0x00, 0x00, 0x15, 0x00, 0x00, 0x00,
  0x01, 0x00, 0x00, 0x00, 0x08, 0x00, 0x00, 0x00, 0x20, 0x00, 0x00, 0x00,
  0x73, 0x65, 0x71, 0x75, 0x65, 0x6e, 0x74, 0x69, 0x61, 0x6c, 0x2f, 0x6d,
  0x61, 0x78, 0x5f, 0x70, 0x6f, 0x6f, 0x6c, 0x69, 0x6e, 0x67, 0x32, 0x64,
  0x2f, 0x4d, 0x61, 0x78, 0x50, 0x6f, 0x6f, 0x6c, 0x00, 0x00, 0x00, 0x00,
  0xbc, 0xd5, 0xff, 0xff, 0x00, 0x00, 0x0e, 0x00, 0x14, 0x00, 0x00, 0x00,
  0x08, 0x00, 0x0c, 0x00, 0x07, 0x00, 0x10, 0x00, 0x0e, 0x00, 0x00, 0x00,
  0x00, 0x00, 0x00, 0x01, 0x30, 0x00, 0x00, 0x00, 0x24, 0x00, 0x00, 0x00,
  0x10, 0x00, 0x00, 0x00, 0x0c, 0x00, 0x10, 0x00, 0x00, 0x00, 0x04, 0x00,
  0x08, 0x00, 0x0f, 0x00, 0x0c, 0x00, 0x00, 0x00, 0x01, 0x00, 0x00, 0x00,
  0x01, 0x00, 0x00, 0x00, 0x00, 0x00, 0x00, 0x01, 0x01, 0x00, 0x00, 0x00,
  0x0a, 0x00, 0x00, 0x00, 0x03, 0x00, 0x00, 0x00, 0x00, 0x00, 0x00, 0x00,
  0x06, 0x00, 0x00, 0x00, 0x08, 0x00, 0x00, 0x00, 0x00, 0x00, 0x0a, 0x00,
  0x0c, 0x00, 0x07, 0x00, 0x00, 0x00, 0x08, 0x00, 0x0a, 0x00, 0x00, 0x00,
  0x00, 0x00, 0x00, 0x03, 0x01, 0x00, 0x00, 0x00, 0x26, 0xd6, 0xff, 0xff,
  0x10, 0x00, 0x00, 0x00, 0x0b, 0x00, 0x00, 0x00, 0x1c, 0x00, 0x00, 0x00,
  0x28, 0x00, 0x00, 0x00, 0x04, 0x00, 0x00, 0x00, 0x01, 0x00, 0x00, 0x00,
  0x40, 0x00, 0x00, 0x00, 0x03, 0x00, 0x00, 0x00, 0x08, 0x00, 0x00, 0x00,
  0x0b, 0x00, 0x00, 0x00, 0x74, 0x66, 0x6c, 0x2e, 0x63, 0x6f, 0x6e, 0x76,
  0x5f, 0x32, 0x64, 0x00, 0x10, 0xd6, 0xff, 0xff, 0x06, 0xd7, 0xff, 0xff,
  0x04, 0x00, 0x00, 0x00, 0x40, 0x00, 0x00, 0x00, 0x88, 0x16, 0xa6, 0xbf,
  0xbc, 0x9e, 0x77, 0x3f, 0xd5, 0x6f, 0xf3, 0xbc, 0xe5, 0x53, 0x5d, 0xbf,
  0x6b, 0x46, 0xbd, 0x3b, 0x2f, 0x6a, 0x91, 0xbf, 0x9e, 0x18, 0x26, 0x3f,
  0x1c, 0x53, 0x54, 0x3f, 0x31, 0xb6, 0x9b, 0xbf, 0xc8, 0x1e, 0x8e, 0x3e,
  0xec, 0xb5, 0x41, 0x3d, 0x37, 0x5a, 0x75, 0x3f, 0x62, 0x84, 0x21, 0xbe,
  0xdf, 0x5e, 0x94, 0xbd, 0x96, 0xd0, 0x4e, 0xbf, 0x61, 0x12, 0x47, 0xbf,
  0xae, 0xd6, 0xff, 0xff, 0x10, 0x00, 0x00, 0x00, 0x0a, 0x00, 0x00, 0x00,
  0x10, 0x00, 0x00, 0x00, 0x20, 0x00, 0x00, 0x00, 0x01, 0x00, 0x00, 0x00,
  0x10, 0x00, 0x00, 0x00, 0x0d, 0x00, 0x00, 0x00, 0x73, 0x74, 0x64, 0x2e,
  0x63, 0x6f, 0x6e, 0x73, 0x74, 0x61, 0x6e, 0x74, 0x31, 0x00, 0x00, 0x00,
  0x90, 0xd6, 0xff, 0xff, 0x86, 0xd7, 0xff, 0xff, 0x04, 0x00, 0x00, 0x00,
  0x20, 0x00, 0x00, 0x00, 0x9f, 0x3e, 0xbb, 0xbf, 0xf1, 0x75, 0xa8, 0xbf,
  0x64, 0xa7, 0xca, 0xbf, 0x29, 0x21, 0xda, 0xbe, 0x88, 0x70, 0x30, 0xbf,
  0x60, 0x8d, 0xcf, 0xbf, 0x03, 0x3e, 0xb9, 0xbf, 0x60, 0xb6, 0xc0, 0xbb,
  0x0e, 0xd7, 0xff, 0xff, 0x10, 0x00, 0x00, 0x00, 0x09, 0x00, 0x00, 0x00,
  0x10, 0x00, 0x00, 0x00, 0x20, 0x00, 0x00, 0x00, 0x01, 0x00, 0x00, 0x00,
  0x08, 0x00, 0x00, 0x00, 0x0c, 0x00, 0x00, 0x00, 0x73, 0x74, 0x64, 0x2e,
  0x63, 0x6f, 0x6e, 0x73, 0x74, 0x61, 0x6e, 0x74, 0x00, 0x00, 0x00, 0x00,
  0xf0, 0xd6, 0xff, 0xff, 0xe6, 0xd7, 0xff, 0xff, 0x04, 0x00, 0x00, 0x00,
  0x00, 0x08, 0x00, 0x00, 0x6a, 0x7e, 0xab, 0xbe, 0xd7, 0x13, 0x50, 0xbe,
  0x63, 0xdf, 0x3d, 0xbe, 0x3e, 0x00, 0x9d, 0xbe, 0x95, 0xcb, 0x64, 0xbc,
  0xb4, 0xe1, 0x52, 0xbe, 0x20, 0x1e, 0x00, 0x3e, 0x1f, 0x93, 0xdd, 0xbd,
  0xde, 0x4e, 0x5d, 0xbe, 0x49, 0x42, 0x13, 0xbe, 0xb1, 0x75, 0x66, 0xbe,
  0xc0, 0x9b, 0x1f, 0xbe, 0x84, 0xe1, 0x23, 0x3d, 0x63, 0x43, 0xee, 0xbd,
  0x3b, 0xbc, 0x5b, 0xbe, 0xe5, 0x46, 0x16, 0xbd, 0x61, 0x15, 0x3c, 0xbd,
  0xcb, 0xa4, 0x8e, 0xbd, 0x13, 0x9b, 0xbb, 0x3b, 0x21, 0xaa, 0x0b, 0xbd,
  0x3f, 0x58, 0x6d, 0xbd, 0xcf, 0xe5, 0x98, 0xbd, 0x48, 0x17, 0x7e, 0xbe,
  0xc2, 0x3b, 0x49, 0x39, 0x7b, 0x8b, 0xfb, 0x3e, 0x0c, 0xca, 0xae, 0x3d,
  0xac, 0x6b, 0xaa, 0x3e, 0x2d, 0xe6, 0xf5, 0x3e, 0x42, 0x32, 0x17, 0xbd,
  0x45, 0xd2, 0x86, 0x3e, 0xf8, 0x9b, 0x9f, 0x3c, 0xd8, 0x93, 0x1d, 0xbd,
  0x43, 0x3c, 0x23, 0xbe, 0x29, 0x56, 0x00, 0xbc, 0xaf, 0x6c, 0x3d, 0xbd,
  0x75, 0x9c, 0xb0, 0xbc, 0xad, 0xbd, 0x9e, 0xbd, 0x50, 0x20, 0xcd, 0x3d,
  0x8c, 0x7d, 0xef, 0xbd, 0xbe, 0x00, 0x47, 0xbe, 0x87, 0x5c, 0x03, 0xbe,
  0x64, 0x7a, 0x1b, 0x3e, 0x70, 0x4d, 0xde, 0xbc, 0x98, 0x63, 0x0d, 0x3d,
  0x65, 0x2b, 0xb8, 0xbe, 0x2e, 0x70, 0x33, 0x3c, 0x4d, 0x51, 0x9b, 0x3e,
  0x97, 0x9f, 0x96, 0xbe, 0xbf, 0x4f, 0xb0, 0xbd, 0x04, 0xb0, 0x70, 0x3e,
  0x69, 0x1b, 0x62, 0xbe, 0xf6, 0xbb, 0x64, 0xbe, 0x2c, 0xa4, 0x83, 0x3d,
  0xcb, 0xcd, 0xb9, 0x3c, 0x36, 0x03, 0x31, 0x3e, 0x55, 0x02, 0xbf, 0xbe,
  0xa8, 0xad, 0xa7, 0xbe, 0x54, 0x3b, 0x8c, 0xbe, 0xd2, 0xcd, 0x28, 0xbe,
  0x18, 0x03, 0x65, 0xbe, 0xf6, 0xc4, 0xae, 0x3d, 0xcb, 0xa8, 0x0e, 0xbe,
  0x2f, 0x34, 0xf3, 0x3e, 0x9c, 0xd4, 0x2d, 0xbc, 0x89, 0xe6, 0x99, 0xba,
  0xc1, 0x53, 0xed, 0xbc, 0x91, 0x80, 0x5d, 0xbe, 0x2f, 0x2e, 0x34, 0x3c,
  0x4f, 0x31, 0x75, 0xbd, 0x5a, 0xae, 0xa4, 0x3b, 0x31, 0xd3, 0x3f, 0xbe,
  0x77, 0xfc, 0x14, 0x3e, 0x90, 0xc2, 0xd1, 0xbd, 0x8f, 0xca, 0xd3, 0xbe,
  0x80, 0x1f, 0xe6, 0xbd, 0x86, 0xba, 0x10, 0xbd, 0x42, 0x0d, 0xc4, 0xbc,
  0xab, 0xdd, 0x95, 0x3c, 0x5b, 0x40, 0x61, 0x3e, 0x2f, 0x94, 0x76, 0xbe,
  0xc2, 0x71, 0xdf, 0x3d, 0x22, 0x29, 0x5c, 0xbe, 0x6f, 0xfb, 0x28, 0x3e,
  0x4f, 0x52, 0x70, 0xbe, 0xd3, 0xc2, 0xde, 0xbd, 0xb8, 0xab, 0x34, 0x3d,
  0x50, 0x04, 0x6a, 0xbe, 0x8c, 0x10, 0xd1, 0x3c, 0x04, 0x3d, 0x07, 0x3b,
  0xfa, 0x5f, 0x74, 0xbe, 0x92, 0x30, 0x17, 0x3e, 0x1d, 0x71, 0x5f, 0xbe,
  0x44, 0xf7, 0x53, 0xbe, 0xa4, 0x6a, 0x19, 0x3e, 0xf6, 0xe8, 0x33, 0x3b,
  0xbe, 0x0d, 0x61, 0x3e, 0xfa, 0xc0, 0xfc, 0x3e, 0x54, 0xcd, 0xb9, 0x3e,
  0xe3, 0x56, 0x34, 0x3e, 0x7e, 0x26, 0x3f, 0x3d, 0x12, 0x79, 0xe4, 0xbc,
  0xf6, 0xb2, 0xaf, 0x3e, 0xa0, 0xa9, 0x4c, 0x3e, 0x58, 0x04, 0xd5, 0xbe,
  0xb2, 0xd9, 0x07, 0xbe, 0xc2, 0x30, 0xc4, 0x3d, 0xe2, 0x4e, 0x8b, 0xbd,
  0x91, 0x38, 0x01, 0xbe, 0x15, 0x92, 0x16, 0xbe, 0xc0, 0x2b, 0x34, 0xbe,
  0xb9, 0x09, 0x96, 0x3e, 0x3c, 0x05, 0xa9, 0xbe, 0x9a, 0xc6, 0xa7, 0xbe,
  0x0b, 0x78, 0x81, 0xbe, 0xd9, 0xe8, 0xb3, 0xbd, 0x19, 0xfe, 0xb5, 0xbe,
  0x71, 0x94, 0xbe, 0x3d, 0xc2, 0xfc, 0x2b, 0xbe, 0xef, 0x7a, 0x3e, 0x3e,
  0xc1, 0x9c, 0x7b, 0xbe, 0x6e, 0x80, 0xa9, 0xbe, 0x07, 0xa6, 0xbe, 0xbe,
  0xda, 0x24, 0xaa, 0xbe, 0x67, 0x15, 0x96, 0xbe, 0x89, 0x6e, 0x06, 0x3e,
  0xee, 0x6a, 0x2a, 0xbe, 0xff, 0xfd, 0x83, 0xbd, 0xed, 0x1a, 0x41, 0xbd,
  0x84, 0x59, 0x3f, 0xbe, 0xac, 0xad, 0xb1, 0x3c, 0xdc, 0x57, 0x3f, 0xbe,
  0x9a, 0xa1, 0x4d, 0xbe, 0x95, 0x17, 0xc0, 0x3e, 0x99, 0xf8, 0xd2, 0xbe,
  0xc9, 0x74, 0x2e, 0x3e, 0x23, 0xfd, 0xd0, 0x3e, 0xe4, 0x2d, 0x06, 0xbd,
  0x44, 0xb3, 0xe5, 0x3d, 0x08, 0xd4, 0x31, 0x3d, 0xee, 0xea, 0x8f, 0x3e,
  0xe3, 0x9c, 0x17, 0x3e, 0xd5, 0x43, 0x53, 0xbe, 0x18, 0x9e, 0x69, 0xbd,
  0xa3, 0xa8, 0xd2, 0xbb, 0xfd, 0x05, 0x05, 0xbd, 0xb0, 0xdf, 0xed, 0x3d,
  0xda, 0x74, 0x5c, 0xbe, 0x53, 0x6f, 0x45, 0x3d, 0x27, 0x93, 0x2e, 0x3e,
  0x7d, 0xf3, 0xbc, 0xbe, 0x96, 0x93, 0xbc, 0x3c, 0x6b, 0x44, 0x13, 0xbd,
  0xb2, 0xb3, 0xb2, 0xbd, 0x93, 0x88, 0x7e, 0x3d, 0xd3, 0x4a, 0xc4, 0xbc,
  0x1e, 0x50, 0x95, 0xbc, 0xde, 0x63, 0xa1, 0x3e, 0x0e, 0x21, 0xaa, 0xbe,
  0x74, 0xb4, 0xb2, 0x3e, 0x8f, 0xec, 0xae, 0x3d, 0x84, 0x18, 0xc3, 0xbe,
  0x86, 0xe3, 0x88, 0xbe, 0x08, 0x16, 0x12, 0xbe, 0x82, 0x68, 0x6b, 0xbe,
  0xa9, 0x71, 0x5b, 0xbe, 0xbf, 0x21, 0xd8, 0xbd, 0x44, 0x5e, 0x60, 0xbd,
  0x8f, 0x01, 0x94, 0xbe, 0xa8, 0xf3, 0x75, 0x3d, 0xa2, 0xce, 0x47, 0x3d,
  0xe8, 0x5a, 0x29, 0xbd, 0x46, 0x1c, 0xe3, 0xbd, 0x7c, 0x02, 0x9f, 0xbe,
  0x68, 0xcb, 0x1f, 0x3e, 0x1d, 0x2e, 0x2d, 0x3e, 0xe0, 0x8a, 0xfc, 0xbe,
  0x79, 0xa2, 0x43, 0x3e, 0x40, 0x8e, 0xe8, 0x3d, 0x08, 0x65, 0xbb, 0x3e,
  0x6f, 0x4d, 0x9a, 0x3e, 0xd2, 0x06, 0x0a, 0xbc, 0x54, 0x55, 0x02, 0x3d,
  0x42, 0x1d, 0x92, 0x3e, 0xa4, 0x97, 0xcf, 0xbe, 0x00, 0x79, 0x42, 0xbe,
  0x7f, 0xa5, 0x01, 0xba, 0x87, 0xbf, 0x7c, 0x3a, 0xa5, 0x72, 0x17, 0xbd,
  0xe6, 0x63, 0x30, 0x3e, 0x5e, 0x51, 0x45, 0xbc, 0xa0, 0x04, 0xd9, 0x3e,
  0x22, 0xef, 0xb6, 0xbe, 0x87, 0xc1, 0x27, 0xbe, 0xb6, 0x9d, 0x5b, 0xbd,
  0xd4, 0xbb, 0x68, 0xbe, 0xe7, 0xf5, 0x7a, 0xbe, 0xec, 0x67, 0x85, 0xbe,
  0x98, 0xe6, 0xb5, 0x3d, 0x5d, 0x09, 0xe8, 0xbd, 0x41, 0x15, 0x31, 0x3d,
  0x62, 0x02, 0xc0, 0x3c, 0x74, 0xe0, 0xe5, 0xbc, 0xcd, 0x5c, 0xef, 0x3d,
  0xbc, 0x55, 0x94, 0x3d, 0x3f, 0xcb, 0xbd, 0x3e, 0xbf, 0x07, 0xc7, 0xbd,
  0xb4, 0x0c, 0x17, 0xbe, 0xfe, 0x04, 0x75, 0x3b, 0x8f, 0xb2, 0x52, 0xbd,
  0xd8, 0xda, 0x16, 0xbe, 0xac, 0xd7, 0xd4, 0xbd, 0xab, 0x9a, 0x1e, 0xbe,
  0xfd, 0x24, 0x98, 0x3d, 0x51, 0x7b, 0x0c, 0x3e, 0x7d, 0xe8, 0x0a, 0xbe,
  0xda, 0xbb, 0xec, 0x3d, 0x2e, 0xe7, 0x37, 0xbd, 0x0c, 0x64, 0xe2, 0xbd,
  0xdf, 0x59, 0x9a, 0xbd, 0x34, 0x08, 0x02, 0xbe, 0x9f, 0x4c, 0xb8, 0xbc,
  0xc1, 0xa5, 0xfa, 0x3c, 0x77, 0xa0, 0x04, 0x3d, 0x20, 0xd8, 0xce, 0xbd,
  0xeb, 0x10, 0x0a, 0xbd, 0x4d, 0xbe, 0x85, 0x3d, 0x47, 0x31, 0x7d, 0xbd,
  0xdd, 0x7a, 0x82, 0xbd, 0xdf, 0x45, 0xc7, 0x3d, 0xa1, 0xd2, 0x62, 0xbd,
  0x74, 0xca, 0x12, 0xbe, 0xc0, 0x0b, 0x37, 0x3d, 0x7a, 0x96, 0xb9, 0x3e,
  0x2b, 0xcf, 0xe8, 0x3c, 0x9d, 0x4d, 0x12, 0x3d, 0x12, 0x0d, 0x7b, 0x3c,
  0x77, 0x73, 0x01, 0xbe, 0x09, 0x5c, 0x9d, 0xbc, 0xd6, 0x53, 0x6d, 0x3e,
  0x74, 0x84, 0x46, 0xbe, 0x18, 0x2b, 0xf1, 0xbd, 0x7e, 0x33, 0x65, 0xbd,
  0x23, 0x1e, 0x9a, 0x3e, 0xcd, 0x42, 0x91, 0x3e, 0x3d, 0x9f, 0xc7, 0x3e,
  0x50, 0x81, 0x37, 0x3e, 0x02, 0xb8, 0x69, 0x3d, 0x6b, 0x3b, 0x40, 0x3d,
  0x3a, 0x1e, 0x2f, 0xbe, 0xfc, 0xe1, 0x7f, 0xbd, 0x5d, 0x50, 0x00, 0xbe,
  0x98, 0x6d, 0x86, 0xbe, 0xa5, 0x80, 0xc8, 0xbd, 0xdc, 0xdf, 0x10, 0xbd,
  0x96, 0x0d, 0xbc, 0x3e, 0x6e, 0xb3, 0x27, 0xbe, 0xc1, 0x39, 0x42, 0x3e,
  0x48, 0xa7, 0x20, 0x3f, 0xcc, 0x05, 0x24, 0x3e, 0x8e, 0xa0, 0x8b, 0x3c,
  0xb8, 0x31, 0xe8, 0xbe, 0x49, 0xa2, 0x1b, 0x3e, 0x1c, 0x8f, 0x1c, 0x3e,
  0xca, 0x70, 0xcd, 0xbe, 0x5c, 0x8e, 0xee, 0xbd, 0x8e, 0x99, 0x47, 0xbe,
  0xf5, 0x68, 0x5d, 0x3c, 0xcc, 0x8f, 0x33, 0xbe, 0x57, 0x84, 0xca, 0xbd,
  0x85, 0x3e, 0x1b, 0xbe, 0xda, 0x97, 0x43, 0xbc, 0x80, 0xe2, 0xac, 0xbe,
  0xd3, 0x55, 0x1a, 0xbe, 0x3c, 0x93, 0x98, 0xbe, 0xc5, 0x94, 0x0b, 0xbe,
  0x66, 0xe4, 0x38, 0xbe, 0xd4, 0x69, 0x99, 0x3d, 0x7a, 0x9b, 0x14, 0xbe,
  0xed, 0xfc, 0x03, 0x3e, 0x62, 0x75, 0x56, 0xbe, 0xd0, 0x7d, 0x93, 0xbe,
  0x19, 0x7e, 0xac, 0xbe, 0x45, 0x12, 0x5a, 0xbe, 0x67, 0x0c, 0x46, 0xbe,
  0xc1, 0xa2, 0x90, 0x3e, 0x16, 0xb0, 0x2d, 0xbe, 0x31, 0xfd, 0x3c, 0x3e,
  0xaa, 0xbc, 0x23, 0xbd, 0x1c, 0x7f, 0xd2, 0x3b, 0xcc, 0xe0, 0x5e, 0x3d,
  0x90, 0x65, 0x06, 0xbd, 0xcb, 0x18, 0x44, 0xbd, 0xf2, 0x7c, 0x06, 0xbe,
  0x20, 0xc5, 0x8a, 0xbd, 0x24, 0x95, 0x04, 0xbe, 0x2a, 0xb4, 0x1a, 0x3f,
  0xe7, 0xe2, 0xae, 0xbc, 0x46, 0x0c, 0x5d, 0x3e, 0x39, 0x28, 0x41, 0xbe,
  0x42, 0xf2, 0x40, 0xbd, 0x36, 0xe4, 0x2c, 0xbd, 0xd9, 0xdc, 0x30, 0xbe,
  0x46, 0xae, 0xf4, 0x3d, 0xdf, 0x64, 0x33, 0x3d, 0x08, 0xf9, 0x57, 0x3d,
  0x4f, 0x0d, 0x39, 0xbc, 0x55, 0x8e, 0xa8, 0xbd, 0x1d, 0x37, 0xc1, 0xbd,
  0xa0, 0x29, 0xe3, 0x3d, 0x83, 0xea, 0x64, 0xbe, 0x2e, 0xbf, 0xfb, 0xbc,
  0x3b, 0xa6, 0x98, 0x3e, 0xc6, 0x77, 0x9a, 0xbc, 0x9d, 0x54, 0xe6, 0xbd,
  0x32, 0x4d, 0x83, 0xbd, 0xba, 0xdb, 0x8b, 0x3c, 0x94, 0x27, 0xd9, 0xbb,
  0x79, 0xb9, 0x96, 0xbe, 0x85, 0xfa, 0xe1, 0x3d, 0xda, 0xc2, 0x97, 0x3d,
  0xaa, 0x4b, 0x9d, 0xbe, 0xa4, 0x99, 0x7f, 0xbe, 0xbb, 0x4b, 0x52, 0xbe,
  0xd2, 0x2b, 0x1c, 0xbe, 0x25, 0x4c, 0x3d, 0xbe, 0x82, 0x32, 0xbf, 0xbd,
  0xf8, 0xcd, 0xd9, 0xbe, 0xa0, 0x73, 0xb6, 0xbe, 0x08, 0x1b, 0x25, 0xbd,
  0x2b, 0x47, 0x51, 0xbe, 0xe1, 0x31, 0x70, 0x3e, 0xe8, 0xf2, 0x8c, 0xbd,
  0xe2, 0xe7, 0x42, 0x3e, 0xc4, 0xde, 0xdb, 0xbc, 0x43, 0x0b, 0x3f, 0x3e,
  0xfb, 0x1e, 0x11, 0xbd, 0x69, 0x34, 0x78, 0xba, 0x97, 0xeb, 0x99, 0xbe,
  0x86, 0xa6, 0x34, 0xbd, 0x46, 0x78, 0x1f, 0xbe, 0x47, 0x81, 0x13, 0x3e,
  0x9e, 0x4f, 0x8a, 0xbd, 0x2b, 0x7e, 0x70, 0xbe, 0xa5, 0xae, 0x33, 0x3e,
  0xce, 0x0c, 0x8c, 0xbd, 0xf6, 0xdd, 0xf7, 0xbd, 0x6f, 0x05, 0xc4, 0x3d,
  0x11, 0xd3, 0xf4, 0xbd, 0x9f, 0x60, 0x86, 0x3d, 0x57, 0x2d, 0x18, 0xbc,
  0xe8, 0x05, 0x0f, 0x3e, 0x69, 0xef, 0x1b, 0xbe, 0xf9, 0x26, 0xae, 0xbd,
  0xdb, 0x4a, 0x96, 0xbd, 0xa5, 0x64, 0x22, 0x3e, 0x92, 0x83, 0xa8, 0xbe,
  0x27, 0x54, 0x80, 0xbe, 0xbf, 0x77, 0xcb, 0x3d, 0x5e, 0x37, 0x25, 0xbe,
  0x68, 0xc9, 0xa9, 0x3d, 0xfb, 0xc9, 0xf1, 0xbd, 0xc1, 0xc7, 0x6f, 0xbe,
  0x38, 0xa4, 0xc5, 0xbd, 0xd4, 0xdd, 0x35, 0xbe, 0x87, 0x9f, 0x0b, 0xbe,
  0xd8, 0x6c, 0xc7, 0x3d, 0x70, 0xca, 0x82, 0x3e, 0x59, 0x04, 0x23, 0x3e,
  0x4c, 0x6a, 0x01, 0xbe, 0x97, 0xad, 0x1a, 0x3e, 0x20, 0x96, 0x85, 0xbe,
  0xf1, 0xa1, 0x8d, 0x3e, 0xc7, 0x4b, 0x57, 0xbe, 0x14, 0xbd, 0x80, 0xbe,
  0xbe, 0xc2, 0x8d, 0xbe, 0x9a, 0x65, 0x6d, 0xbe, 0x4b, 0xf8, 0x9f, 0xbe,
  0xda, 0x3f, 0x10, 0xbe, 0xb3, 0xd4, 0x97, 0xbe, 0x58, 0xf5, 0x08, 0xbf,
  0xeb, 0x96, 0x81, 0x3d, 0x5f, 0xa0, 0xb3, 0xbe, 0xa1, 0x3e, 0xd0, 0xbe,
  0xb8, 0x75, 0x50, 0xbe, 0xa3, 0x97, 0x8a, 0xbd, 0x2c, 0x14, 0x2b, 0xbe,
  0xa4, 0x18, 0xa4, 0xbd, 0xb3, 0x2d, 0x0b, 0xbe, 0xe7, 0xcf, 0x24, 0xbd,
  0x2d, 0x00, 0x7c, 0xbd, 0x9a, 0x35, 0x6b, 0xbe, 0xbb, 0xfc, 0xa0, 0xbe,
  0x3c, 0xad, 0x2b, 0x3c, 0x07, 0x26, 0x62, 0xbe, 0xac, 0xb4, 0x12, 0xbe,
  0xa6, 0x6c, 0xdb, 0xbd, 0xfb, 0x25, 0xc4, 0x3d, 0x35, 0x87, 0xa5, 0xbe,
  0x13, 0xbb, 0x70, 0xbe, 0xcc, 0x40, 0xda, 0xbd, 0xf5, 0xdd, 0x1b, 0xbe,
  0xd5, 0xed, 0x9b, 0x3b, 0x39, 0xfc, 0xc4, 0xbd, 0xdb, 0x81, 0x89, 0xbe,
  0xcf, 0x78, 0xeb, 0x3c, 0x96, 0x0a, 0xa2, 0x3c, 0x65, 0x95, 0xb1, 0x3c,
  0xd6, 0xa8, 0x2c, 0xbe, 0x57, 0x87, 0x90, 0x3d, 0x02, 0xd3, 0xab, 0x3d,
  0xb2, 0xb9, 0x13, 0xbe, 0xa1, 0x3f, 0x33, 0xbe, 0x38, 0xf0, 0xb9, 0x3c,
  0xe5, 0xd6, 0x79, 0xbe, 0xaa, 0x37, 0xb1, 0xbd, 0x5f, 0xdf, 0xac, 0xbb,
  0xb3, 0x44, 0xee, 0xbb, 0x6f, 0xf3, 0x2f, 0xbe, 0xc6, 0x63, 0xd6, 0x3d,
  0xe2, 0x35, 0x02, 0xbe, 0x19, 0xa2, 0xf0, 0xbc, 0xdf, 0xa3, 0x3f, 0xbe,
  0xa7, 0x8e, 0x0d, 0xbe, 0x7d, 0x3c, 0x4f, 0x3d, 0xb1, 0xc8, 0x17, 0xbd,
  0x91, 0x2a, 0xc6, 0xbe, 0x82, 0xe7, 0xbf, 0xbd, 0x07, 0x0a, 0x34, 0x3c,
  0xd3, 0x70, 0x82, 0xbe, 0x51, 0xb1, 0xb6, 0xbd, 0x9d, 0x64, 0xcb, 0xbd,
  0x6d, 0xc2, 0x16, 0xbd, 0x1f, 0x2a, 0x57, 0x3e, 0xfd, 0xc7, 0x64, 0xbd,
  0xee, 0x95, 0x89, 0xbe, 0xd0, 0xdf, 0x80, 0xbd, 0x4c, 0x78, 0x85, 0xbd,
  0x62, 0xd1, 0x56, 0x3d, 0xbf, 0xc4, 0x8e, 0xbd, 0x2c, 0x8d, 0xbc, 0xbd,
  0xbc, 0x5c, 0xd2, 0xbd, 0x68, 0xb5, 0x25, 0xbe, 0xa1, 0x1a, 0x2e, 0x3d,
  0x7e, 0xf7, 0x09, 0x3e, 0x28, 0x5d, 0x82, 0xbe, 0x2a, 0x53, 0x56, 0xbe,
  0x96, 0x4f, 0x07, 0xbe, 0xfc, 0x98, 0xaf, 0x3e, 0xcd, 0x08, 0x5e, 0xbe,
  0x74, 0xbc, 0x6b, 0xbe, 0xb9, 0x2b, 0x4c, 0xbe, 0x35, 0x4a, 0x6e, 0xbe,
  0x34, 0xab, 0x4a, 0xbe, 0xd8, 0xcd, 0x1f, 0xbe, 0xd8, 0x81, 0x6b, 0xbe,
  0xc4, 0x79, 0x63, 0xbe, 0xf0, 0x41, 0x11, 0x3e, 0x6d, 0x85, 0xfd, 0x3d,
  0x03, 0x18, 0xab, 0xbd, 0xa7, 0x0f, 0xaa, 0xbc, 0x48, 0xab, 0xd6, 0x3c,
  0x7d, 0xc7, 0xea, 0x3d, 0xea, 0xcb, 0x73, 0x3a, 0x25, 0x4c, 0x37, 0xbe,
  0x4d, 0x22, 0x5e, 0x3e, 0xb2, 0xd8, 0x1a, 0xbd, 0x45, 0x6a, 0xfe, 0xbd,
  0xbe, 0x4f, 0x79, 0x3e, 0x30, 0x58, 0xe4, 0x3d, 0xf5, 0x5f, 0x38, 0x3e,
  0x25, 0xeb, 0x0b, 0x3e, 0x76, 0x4e, 0xc7, 0xbd, 0x78, 0x9a, 0x1b, 0xbe,
  0x99, 0x78, 0x62, 0xbe, 0x3b, 0x9a, 0xac, 0x3d, 0xdd, 0x7a, 0xe5, 0xbd,
  0x7c, 0x79, 0x43, 0x3e, 0x44, 0xbe, 0x40, 0xbe, 0x06, 0x31, 0xbe, 0x3d,
  0x0a, 0xe2, 0xca, 0xbe, 0xf9, 0xa7, 0x4e, 0x3e, 0x9a, 0x68, 0xe2, 0x3e,
  0x6a, 0x0b, 0xa6, 0x3d, 0x6e, 0x3a, 0x7e, 0x3d, 0x95, 0x16, 0x16, 0xbe,
  0xa4, 0x15, 0x66, 0x3e, 0xc5, 0xb8, 0x94, 0x3e, 0x4a, 0x55, 0xcb, 0xbe,
  0xbd, 0x88, 0xc7, 0xbe, 0x5e, 0x16, 0x02, 0xbe, 0xa1, 0xed, 0xfd, 0xbd,
  0x85, 0x19, 0xcd, 0xbe, 0x9a, 0x2b, 0x7b, 0x3d, 0xb6, 0x44, 0x1c, 0xbe,
  0xf9, 0xfc, 0xd0, 0xbd, 0x2e, 0x55, 0xce, 0xbe, 0xa8, 0x89, 0xe6, 0xbe,
  0xba, 0x39, 0xc6, 0xbe, 0x2a, 0x78, 0x60, 0xbe, 0x83, 0x54, 0xf7, 0xbe,
  0x50, 0x42, 0x3f, 0x3e, 0xf7, 0x5b, 0x10, 0xbe, 0xe0, 0x66, 0xd4, 0x3e,
  0xf1, 0x20, 0x3d, 0xbe, 0x4b, 0x49, 0xaf, 0xbd, 0x2a, 0xe8, 0x89, 0xbe,
  0xcb, 0xbc, 0xdc, 0xbd, 0x0b, 0x40, 0x38, 0xbd, 0xea, 0xdb, 0xdc, 0x3e,
  0x76, 0x13, 0x63, 0xbd, 0xda, 0x71, 0x53, 0x3e, 0x40, 0x85, 0xcd, 0x3d,
  0x4e, 0xdf, 0xff, 0xff, 0x10, 0x00, 0x00, 0x00, 0x08, 0x00, 0x00, 0x00,
  0x1c, 0x00, 0x00, 0x00, 0x38, 0x00, 0x00, 0x00, 0x04, 0x00, 0x00, 0x00,
  0x10, 0x00, 0x00, 0x00, 0x04, 0x00, 0x00, 0x00, 0x01, 0x00, 0x00, 0x00,
  0x08, 0x00, 0x00, 0x00, 0x1a, 0x00, 0x00, 0x00, 0x73, 0x65, 0x71, 0x75,
  0x65, 0x6e, 0x74, 0x69, 0x61, 0x6c, 0x2f, 0x63, 0x6f, 0x6e, 0x76, 0x32,
  0x64, 0x5f, 0x31, 0x2f, 0x43, 0x6f, 0x6e, 0x76, 0x32, 0x44, 0x00, 0x00,
  0x48, 0xdf, 0xff, 0xff, 0x3e, 0xe0, 0xff, 0xff, 0x04, 0x00, 0x00, 0x00,
  0x80, 0x01, 0x00, 0x00, 0x68, 0x21, 0x90, 0x3d, 0xa1, 0xed, 0x21, 0x3d,
  0x6f, 0xef, 0xcc, 0x3b, 0x9a, 0x56, 0xd4, 0x3e, 0x29, 0xe1, 0x2a, 0x3e,
  0xb0, 0xc7, 0xbf, 0x3c, 0xc5, 0x32, 0xc3, 0xbd, 0x43, 0xbb, 0xe5, 0xbd,
  0xf9, 0x1f, 0x83, 0xbd, 0x66, 0x7c, 0xc3, 0xbe, 0xb6, 0xba, 0x52, 0xbe,
  0xd1, 0x09, 0x0f, 0x3e, 0x51, 0xe3, 0x8a, 0x3d, 0x9f, 0xb8, 0xf9, 0x3d,
  0xa3, 0xac, 0x81, 0xbe, 0x0a, 0xf5, 0x51, 0x3d, 0xd8, 0x2b, 0x3f, 0x3e,
  0x79, 0x8f, 0x71, 0xbe, 0x75, 0x0f, 0xd8, 0xbd, 0xe6, 0x10, 0x8b, 0xbd,
  0x21, 0x30, 0x27, 0xbe, 0x42, 0xb0, 0xa7, 0x3d, 0xa8, 0x8a, 0x24, 0xbe,
  0x5e, 0x07, 0xe2, 0x3e, 0xed, 0xcb, 0xa4, 0x3e, 0x8d, 0x36, 0xa9, 0x3d,
  0x5c, 0x1c, 0x90, 0x3c, 0x28, 0xb5, 0xd3, 0x3d, 0x6d, 0x36, 0xa0, 0xbd,
  0xe4, 0xd3, 0x95, 0x3c, 0x5c, 0xd7, 0x2d, 0xbe, 0x94, 0x12, 0xb7, 0xbd,
  0x67, 0x17, 0xb9, 0x3d, 0xbf, 0xb5, 0x76, 0xbe, 0x35, 0x0f, 0x26, 0xbd,
  0x3b, 0xf5, 0x9a, 0x3d, 0x2d, 0x04, 0xbf, 0x3e, 0x94, 0xfc, 0x84, 0x3e,
  0x88, 0x96, 0x64, 0x3e, 0x9d, 0x65, 0x12, 0xbe, 0x43, 0x43, 0x52, 0x3e,
  0x69, 0xde, 0x6e, 0xbd, 0xc3, 0x66, 0x90, 0x3d, 0x3c, 0x39, 0x5a, 0xbe,
  0x18, 0x0e, 0x69, 0xbe, 0xcb, 0x89, 0x16, 0xbe, 0xb9, 0xc1, 0x91, 0xbe,
  0x75, 0xda, 0x6f, 0xbd, 0x4c, 0x79, 0xf8, 0x3d, 0x89, 0xc9, 0xb4, 0xbe,
  0xca, 0x14, 0x3e, 0x3e, 0x7b, 0xc1, 0x5f, 0xbe, 0xb5, 0xa7, 0x06, 0x3e,
  0x13, 0x35, 0x1c, 0xbe, 0x01, 0x30, 0xf9, 0x3d, 0xdf, 0xf2, 0x69, 0x3e,
  0x09, 0x67, 0x7e, 0x3c, 0x37, 0x7a, 0x6b, 0x3d, 0xbc, 0x9a, 0x94, 0x3d,
  0xce, 0x61, 0x04, 0xbd, 0x7c, 0xa4, 0x06, 0x3e, 0xda, 0x8d, 0x16, 0xbd,
  0x60, 0xc9, 0x0b, 0x3e, 0x58, 0xd9, 0x31, 0x3e, 0x9b, 0x5d, 0x70, 0xbd,
  0xcc, 0xbc, 0xfc, 0x3b, 0x19, 0x02, 0x86, 0xbc, 0x61, 0x64, 0x83, 0xbd,
  0xff, 0xa7, 0xcd, 0x3d, 0xdf, 0xf8, 0x29, 0xbe, 0xf7, 0x85, 0x6d, 0xbd,
  0x0b, 0x79, 0x93, 0x3d, 0x24, 0x0a, 0x8d, 0x3d, 0x7b, 0x16, 0xa6, 0xbe,
  0x1f, 0xe8, 0xe1, 0x3c, 0x25, 0x48, 0xe0, 0xbc, 0x3e, 0xce, 0x8f, 0xbe,
  0x24, 0x1d, 0x02, 0xbc, 0xaf, 0x74, 0xe5, 0x3c, 0x73, 0xf1, 0x61, 0x3e,
  0x39, 0x13, 0x28, 0x3d, 0x68, 0xc0, 0xc3, 0xbc, 0x7b, 0xed, 0xab, 0x3e,
  0x65, 0x27, 0x80, 0xbc, 0xc0, 0x18, 0x4f, 0x3f, 0x3c, 0x2e, 0x29, 0x3d,
  0x4d, 0x49, 0x3c, 0xbe, 0xf6, 0x87, 0xcc, 0xbe, 0xde, 0xee, 0xae, 0x3d,
  0xeb, 0x17, 0xc1, 0xbc, 0xbd, 0xab, 0xa6, 0xbd, 0xd3, 0xe1, 0x6b, 0xbe,
  0xb2, 0x12, 0xb6, 0x3d, 0xa2, 0x0a, 0xb0, 0x3e, 0x95, 0xdc, 0xb5, 0x3e,
  0x41, 0x46, 0x80, 0x3a, 0x26, 0xe1, 0xff, 0xff, 0x10, 0x00, 0x00, 0x00,
  0x07, 0x00, 0x00, 0x00, 0x1c, 0x00, 0x00, 0x00, 0x38, 0x00, 0x00, 0x00,
  0x04, 0x00, 0x00, 0x00, 0x08, 0x00, 0x00, 0x00, 0x04, 0x00, 0x00, 0x00,
  0x03, 0x00, 0x00, 0x00, 0x01, 0x00, 0x00, 0x00, 0x18, 0x00, 0x00, 0x00,
  0x73, 0x65, 0x71, 0x75, 0x65, 0x6e, 0x74, 0x69, 0x61, 0x6c, 0x2f, 0x63,
  0x6f, 0x6e, 0x76, 0x32, 0x64, 0x2f, 0x43, 0x6f, 0x6e, 0x76, 0x32, 0x44,
  0x00, 0x00, 0x00, 0x00, 0x20, 0xe1, 0xff, 0xff, 0x16, 0xe2, 0xff, 0xff,
  0x04, 0x00, 0x00, 0x00, 0x80, 0x00, 0x00, 0x00, 0x96, 0x30, 0x94, 0xbe,
  0x0e, 0xc7, 0x9b, 0xbe, 0x68, 0x0d, 0x85, 0x3e, 0x43, 0x12, 0x9e, 0x3e,
  0x93, 0xbe, 0x44, 0xbe, 0xc5, 0xe7, 0x86, 0x3b, 0xdf, 0x41, 0x93, 0x3e,
  0xc5, 0xb0, 0x80, 0xbd, 0xd6, 0x9d, 0x3b, 0xbe, 0xab, 0x21, 0xb1, 0x3e,
  0x21, 0xeb, 0x11, 0xbd, 0xa9, 0xbb, 0x80, 0xbd, 0x24, 0x62, 0x73, 0xbc,
  0x01, 0xe6, 0xac, 0x3c, 0xc5, 0x1d, 0x0f, 0x3f, 0x2f, 0x78, 0xb6, 0xbe,
  0xb3, 0xa0, 0x80, 0xbe, 0xc7, 0x9d, 0xb0, 0x3d, 0x7f, 0x1d, 0x2b, 0x3e,
  0x5a, 0x25, 0x7f, 0x3e, 0x83, 0x01, 0x88, 0xbe, 0xae, 0x0d, 0xde, 0x3d,
  0xb9, 0x85, 0x85, 0xbe, 0x4d, 0x2b, 0x41, 0xbe, 0xc9, 0x7f, 0x87, 0xbe,
  0x54, 0xaf, 0xd0, 0x3e, 0x6f, 0x36, 0xab, 0xbc, 0xfb, 0x86, 0x9c, 0xbe,
  0xcb, 0x5c, 0xde, 0xbd, 0xf0, 0xce, 0x71, 0x3e, 0x00, 0x1d, 0x00, 0x3f,
  0x1e, 0x13, 0xf7, 0xbe, 0xfe, 0xe1, 0xff, 0xff, 0x10, 0x00, 0x00, 0x00,
  0x06, 0x00, 0x00, 0x00, 0x14, 0x00, 0x00, 0x00, 0x30, 0x00, 0x00, 0x00,
  0x02, 0x00, 0x00, 0x00, 0x02, 0x00, 0x00, 0x00, 0x10, 0x00, 0x00, 0x00,
  0x19, 0x00, 0x00, 0x00, 0x73, 0x65, 0x71, 0x75, 0x65, 0x6e, 0x74, 0x69,
  0x61, 0x6c, 0x2f, 0x64, 0x65, 0x6e, 0x73, 0x65, 0x5f, 0x31, 0x2f, 0x4d,
  0x61, 0x74, 0x4d, 0x75, 0x6c, 0x00, 0x00, 0x00, 0xf0, 0xe1, 0xff, 0xff,
  0xe6, 0xe2, 0xff, 0xff, 0x04, 0x00, 0x00, 0x00, 0x00, 0x1c, 0x00, 0x00,
  0x19, 0xb9, 0xcc, 0x3d, 0x0d, 0x2c, 0xea, 0xbc, 0x55, 0x31, 0xb6, 0x3e,
  0x91, 0x41, 0xa4, 0xbe, 0xae, 0x69, 0x67, 0xbd, 0xc4, 0xc8, 0x25, 0xbe,
  0x2c, 0xc9, 0x17, 0x3e, 0xe2, 0x09, 0xb1, 0xbe, 0xa6, 0xab, 0x86, 0xbd,
  0xb4, 0x9e, 0x41, 0x3e, 0x1c, 0x2d, 0x2c, 0x3e, 0xc1, 0xf7, 0x23, 0xbe,
  0xfe, 0xf9, 0x37, 0xbd, 0xc5, 0x0e, 0x53, 0x3e, 0x94, 0xd8, 0x78, 0xbe,
  0x32, 0x8e, 0xf5, 0x3b, 0x9f, 0x9d, 0x0c, 0x3e, 0xe7, 0xc0, 0xa1, 0xbe,
  0xc1, 0x1e, 0x00, 0x3f, 0x26, 0x88, 0x7a, 0xbe, 0x35, 0x46, 0xeb, 0x3e,
  0x21, 0xba, 0x26, 0xbe, 0x71, 0xc7, 0x3e, 0x3d, 0x4b, 0xa5, 0x71, 0x3d,
  0xe3, 0xda, 0x38, 0xbe, 0xd5, 0xa5, 0x26, 0x3d, 0x28, 0xde, 0x9c, 0x3e,
  0xb3, 0x07, 0xda, 0xbe, 0xcc, 0x33, 0x03, 0x3e, 0xce, 0x6d, 0x6a, 0x3e,
  0xf3, 0x90, 0x30, 0x3d, 0x20, 0xab, 0x22, 0xbe, 0x48, 0xd2, 0xd3, 0x3d,
  0x6b, 0x9a, 0x39, 0xbe, 0x4e, 0xcb, 0x18, 0x3f, 0xa2, 0xaf, 0x51, 0xbe,
  0xdc, 0xe7, 0x14, 0x3f, 0x0d, 0x31, 0x96, 0x3d, 0x99, 0x34, 0xf2, 0x3d,
  0xc4, 0x81, 0xcd, 0x3c, 0x22, 0x40, 0x67, 0x3d, 0x47, 0x50, 0x34, 0x3e,
  0x82, 0x0c, 0x47, 0x3d, 0xcb, 0x92, 0x16, 0xbe, 0x6e, 0xef, 0xa3, 0xbd,
  0x4b, 0x71, 0xc2, 0x3e, 0x5d, 0xaf, 0xc1, 0x3d, 0xd4, 0xe9, 0x95, 0x3d,
  0xad, 0x38, 0xb4, 0xbd, 0x96, 0x98, 0x36, 0xbe, 0x24, 0x99, 0xc3, 0x3e,
  0x7f, 0xef, 0xe1, 0xbe, 0xa5, 0x80, 0x23, 0x3e, 0x1f, 0x94, 0xe4, 0xbd,
  0x5a, 0xeb, 0xb5, 0x3d, 0xdd, 0x1e, 0x6b, 0xbc, 0x8c, 0x5f, 0x12, 0xbe,
  0xe6, 0xd0, 0xe8, 0x3d, 0xa4, 0x8f, 0xc3, 0x3e, 0x98, 0xd5, 0x05, 0xbd,
  0x8d, 0x22, 0xc3, 0xbd, 0x8f, 0x61, 0xbe, 0x3e, 0x9a, 0x5c, 0x54, 0x3e,
  0xb3, 0xd4, 0xbc, 0x3c, 0x51, 0x91, 0x5f, 0x3d, 0xdb, 0x39, 0x35, 0xbe,
  0xf0, 0x4d, 0x3b, 0x3f, 0x16, 0x1a, 0xf0, 0xbd, 0xb1, 0x7b, 0x56, 0x3e,
  0x68, 0x31, 0xc4, 0xbd, 0x3f, 0xf4, 0x58, 0x3e, 0x92, 0x32, 0x7d, 0xbb,
  0x9a, 0x48, 0x72, 0x3d, 0xd6, 0xab, 0x25, 0x3e, 0x3a, 0x25, 0x86, 0x3e,
  0x5f, 0xb0, 0xc6, 0xbe, 0xdc, 0x42, 0x1c, 0xbe, 0x35, 0x47, 0xae, 0xbc,
  0x71, 0x09, 0x86, 0x3e, 0xc3, 0x26, 0x55, 0xbe, 0xcf, 0xf8, 0x5c, 0xbe,
  0x73, 0x1d, 0xb8, 0xbd, 0xc9, 0xf4, 0xa3, 0x3e, 0x83, 0xc3, 0x14, 0xbe,
  0xea, 0x05, 0x9d, 0x3e, 0xa2, 0xd0, 0xcc, 0xbd, 0x31, 0x87, 0x1c, 0x3e,
  0xf9, 0xd5, 0x07, 0xbe, 0x38, 0x4e, 0x8f, 0x3d, 0xbd, 0x76, 0x01, 0x3e,
  0x47, 0xae, 0x3b, 0x3e, 0x63, 0xe4, 0xe8, 0xbe, 0x0a, 0xc6, 0x1f, 0x3d,
  0x83, 0x23, 0xac, 0x3e, 0x52, 0x10, 0x02, 0xbe, 0x21, 0x8a, 0xdd, 0xbd,
  0xa0, 0x4b, 0x6a, 0xba, 0x1b, 0x9a, 0x9e, 0x3e, 0x6d, 0x90, 0x2a, 0x3f,
  0xbc, 0x65, 0x38, 0xbe, 0x73, 0x44, 0x03, 0x3e, 0x73, 0x6e, 0x0b, 0xbe,
  0x1f, 0x82, 0x20, 0x3d, 0x9d, 0x7e, 0xa7, 0xbd, 0xe8, 0x00, 0x5a, 0x3b,
  0x9d, 0x28, 0x34, 0x3e, 0xf4, 0x9f, 0x19, 0xbd, 0x02, 0xae, 0x88, 0x3e,
  0x2b, 0x9a, 0x84, 0xbd, 0xb2, 0x15, 0x85, 0x3e, 0x8a, 0xc8, 0x0b, 0xbe,
  0x7a, 0x83, 0x91, 0xbd, 0xf0, 0x2b, 0xea, 0xbd, 0x11, 0x1a, 0xcf, 0x3d,
  0xe3, 0x64, 0x3c, 0xbe, 0x29, 0xc1, 0x50, 0xbe, 0xab, 0x45, 0x4a, 0xbe,
  0x6c, 0xa7, 0xdf, 0xbd, 0x58, 0xc1, 0x47, 0x3d, 0x2a, 0xae, 0x16, 0xbe,
  0x6d, 0x93, 0x38, 0x3d, 0x6d, 0x6c, 0x42, 0x3e, 0xb5, 0x80, 0xc8, 0xbd,
  0x7c, 0x8b, 0xd1, 0xbd, 0xdc, 0x98, 0x47, 0xbe, 0x35, 0x0e, 0x0a, 0xbe,
  0x4f, 0x8d, 0x54, 0xbc, 0xc9, 0xfc, 0xdc, 0x3c, 0xad, 0x19, 0xe5, 0xbb,
  0x47, 0x89, 0x22, 0x3d, 0xc7, 0x3b, 0x81, 0x3d, 0x48, 0x08, 0x5a, 0xbe,
  0x49, 0x3e, 0x20, 0xbe, 0x9f, 0xca, 0x69, 0x3d, 0xe5, 0xf7, 0x46, 0xbe,
  0x8e, 0x95, 0xac, 0xbe, 0x3e, 0xd5, 0xbe, 0x3d, 0x3d, 0xd3, 0x6e, 0xbd,
  0x96, 0x5b, 0x61, 0xbd, 0x06, 0x57, 0xe0, 0x3c, 0xf9, 0x48, 0x46, 0xbc,
  0xc6, 0x08, 0xa9, 0x3d, 0x9b, 0x64, 0xcd, 0xbd, 0x86, 0xdd, 0x4f, 0xbe,
  0x79, 0xc9, 0x04, 0x3e, 0xc1, 0x3e, 0x9c, 0x3d, 0xc5, 0xb0, 0x32, 0xbe,
  0x41, 0x6d, 0x6f, 0x3d, 0xa2, 0xcb, 0xf0, 0xbd, 0x91, 0x66, 0xf2, 0x3d,
  0x6e, 0xa8, 0x61, 0xbe, 0xd7, 0xa2, 0x34, 0xbe, 0x43, 0xf3, 0x1d, 0xbc,
  0xc5, 0x37, 0xd2, 0x3d, 0xb3, 0x76, 0x07, 0xbe, 0xd0, 0x0c, 0xd5, 0x3d,
  0x0d, 0x17, 0xda, 0xbb, 0x78, 0xb9, 0xb0, 0xbd, 0x77, 0x79, 0xab, 0x3d,
  0x9b, 0x09, 0x26, 0xbe, 0x23, 0x75, 0x2b, 0x3e, 0x14, 0xb7, 0x84, 0xbd,
  0xf4, 0x37, 0xa7, 0xbd, 0x94, 0x72, 0x29, 0xbe, 0x8e, 0xd9, 0x4d, 0xbd,
  0x48, 0xf0, 0x9d, 0xbd, 0x5e, 0x7b, 0xf1, 0x3d, 0x07, 0x83, 0xdf, 0xbd,
  0xb7, 0xd3, 0x1b, 0x3e, 0x9d, 0x66, 0x5a, 0xbd, 0x94, 0xe5, 0x6a, 0x3e,
  0x1a, 0x75, 0x46, 0x3c, 0xda, 0x27, 0xd7, 0xbd, 0x7e, 0x67, 0xea, 0xbd,
  0x00, 0x11, 0x22, 0x3d, 0x01, 0x16, 0x0c, 0x3e, 0xc1, 0x68, 0x96, 0x3d,
  0xe4, 0xe0, 0xa5, 0x3d, 0xef, 0xbe, 0x44, 0x3d, 0x5e, 0x8f, 0x8a, 0xbe,
  0x0a, 0xaf, 0xad, 0x3d, 0xbc, 0x46, 0x85, 0x3d, 0xc4, 0xae, 0xf7, 0x3d,
  0x0c, 0x77, 0x81, 0xbe, 0x87, 0xdb, 0xc0, 0x3d, 0xe6, 0x02, 0x4c, 0x3e,
  0x79, 0x83, 0xa6, 0x3d, 0xeb, 0xd0, 0x59, 0x3e, 0x48, 0x02, 0xdd, 0x3d,
  0x1e, 0xd3, 0x36, 0x3d, 0xaf, 0xae, 0x10, 0x3e, 0x83, 0x73, 0x45, 0xbe,
  0x9b, 0x8f, 0x12, 0x3d, 0x8b, 0x5c, 0x91, 0xbd, 0x03, 0x86, 0xd4, 0xbd,
  0x7d, 0x27, 0x05, 0xbe, 0xa1, 0x9f, 0x19, 0xbe, 0x63, 0x72, 0xf8, 0xbc,
  0x66, 0xa1, 0x5a, 0xbe, 0x52, 0xda, 0x21, 0xbe, 0x0d, 0x3c, 0x6f, 0x3d,
  0x5c, 0x0d, 0x68, 0x3e, 0xb0, 0x01, 0xdb, 0x3d, 0xc5, 0x8b, 0x42, 0x3e,
  0x40, 0xd3, 0x3a, 0x3e, 0xa0, 0x14, 0x6b, 0xbe, 0xf8, 0x7a, 0x98, 0xbd,
  0x64, 0xdf, 0x0f, 0xbe, 0x03, 0x0d, 0x4a, 0xbd, 0x7b, 0xbc, 0x1b, 0xbe,
  0xc1, 0x2a, 0x07, 0x3e, 0x66, 0x03, 0x49, 0xbe, 0x91, 0x76, 0xf0, 0x3b,
  0xb3, 0xe9, 0x7e, 0x3c, 0x53, 0x0c, 0x2e, 0xbe, 0x52, 0xe4, 0x40, 0xbe,
  0x52, 0x40, 0x46, 0xbd, 0x32, 0xc0, 0x83, 0xbe, 0x1f, 0xaf, 0x85, 0xbd,
  0xae, 0xfd, 0x5a, 0x3e, 0xea, 0x77, 0x6a, 0xbe, 0x74, 0x91, 0x0b, 0x3e,
  0x9f, 0xaa, 0x41, 0xbe, 0x7f, 0x1c, 0x31, 0xbc, 0x27, 0x48, 0x08, 0xbe,
  0x32, 0x43, 0x4d, 0xbe, 0x65, 0x8f, 0xf2, 0xbd, 0x87, 0xb7, 0xa6, 0xbe,
  0x13, 0x1a, 0xd4, 0xbd, 0xed, 0x3c, 0xd0, 0xbd, 0x93, 0x75, 0xbd, 0xbd,
  0x44, 0x5b, 0xc2, 0xbd, 0x78, 0x8b, 0xb1, 0xbe, 0xc6, 0xf2, 0x85, 0xbd,
  0xba, 0xb4, 0x12, 0xbe, 0xb5, 0x92, 0xcd, 0xbd, 0x79, 0x6e, 0x45, 0xbd,
  0xae, 0x36, 0x04, 0xbe, 0xce, 0xf6, 0xec, 0xbd, 0x84, 0x4b, 0x85, 0xbe,
  0x6e, 0xfc, 0xaf, 0xbe, 0xc1, 0x9d, 0x1b, 0xbe, 0xf9, 0x54, 0xe5, 0xbb,
  0x90, 0x86, 0x0a, 0x3b, 0x1d, 0xfa, 0x99, 0xbe, 0x00, 0x2c, 0xd2, 0xbb,
  0x62, 0xaf, 0xd3, 0xbd, 0x67, 0xee, 0x4d, 0xbd, 0xf4, 0x57, 0x41, 0x3e,
  0x91, 0xf3, 0x0b, 0xbe, 0x57, 0x8c, 0xe9, 0xbd, 0x20, 0x79, 0x8b, 0x3c,
  0xf5, 0x4d, 0x58, 0xbd, 0xd5, 0xf4, 0xca, 0x3d, 0x9e, 0xef, 0x83, 0xbc,
  0x11, 0x53, 0xd8, 0x3d, 0x9f, 0xe4, 0x4a, 0xbe, 0x3b, 0x65, 0x72, 0x3c,
  0xe7, 0xe1, 0x80, 0xbd, 0xd2, 0xce, 0x58, 0x3e, 0xc3, 0x21, 0xb6, 0xbd,
  0xe1, 0x16, 0x47, 0xbe, 0x4c, 0x12, 0xb7, 0xbd, 0xb8, 0x27, 0xe3, 0xbd,
  0x17, 0x6f, 0xed, 0x3d, 0x96, 0x0c, 0x95, 0xbe, 0x22, 0x86, 0xf8, 0xbc,
  0x66, 0xcf, 0x3a, 0xbe, 0x34, 0x9c, 0x81, 0xba, 0x3f, 0x53, 0x2d, 0xbe,
  0x8c, 0x42, 0x13, 0xbe, 0xe9, 0xc3, 0x55, 0x3d, 0x1b, 0x48, 0x17, 0xbe,
  0xc3, 0xbb, 0x4e, 0xbe, 0x58, 0x1a, 0x45, 0x3e, 0x40, 0x84, 0x9d, 0xbe,
  0xd6, 0x04, 0xac, 0xbd, 0x10, 0xaf, 0xc2, 0xbe, 0xc4, 0x23, 0x0a, 0xbe,
  0xc7, 0x6b, 0x1c, 0xbe, 0xe7, 0xe1, 0x27, 0xbe, 0x7f, 0x8e, 0x51, 0xbe,
  0x73, 0x53, 0x54, 0x3d, 0x5e, 0xb4, 0xaa, 0x3d, 0xda, 0xc0, 0x41, 0xbd,
  0x89, 0xd9, 0x38, 0xbe, 0x44, 0xd2, 0xe2, 0xbd, 0xa6, 0xfb, 0xc0, 0xbd,
  0x4a, 0x5a, 0xf2, 0x3d, 0xe9, 0xf5, 0x1b, 0x3c, 0x2a, 0x1e, 0x1c, 0x3e,
  0x00, 0x84, 0xc1, 0xbe, 0x7a, 0x72, 0x1b, 0xbe, 0xc7, 0x08, 0x1c, 0x3e,
  0x85, 0xb2, 0x88, 0x3c, 0xd6, 0x35, 0x85, 0xbd, 0x4b, 0x37, 0x81, 0xbe,
  0xa6, 0xdd, 0xf4, 0xbd, 0x64, 0xd1, 0xf1, 0x3c, 0x7e, 0x2a, 0x8b, 0xbd,
  0x55, 0x43, 0x22, 0xbe, 0xaa, 0xc6, 0xd1, 0xbc, 0x72, 0x3d, 0x15, 0x3e,
  0x33, 0x2a, 0x1c, 0xbc, 0x9a, 0x2b, 0x53, 0x3e, 0x01, 0x00, 0xe5, 0x3e,
  0x81, 0x80, 0x45, 0xbe, 0x7d, 0xe4, 0x1a, 0x3e, 0x62, 0xff, 0xbe, 0x3d,
  0x00, 0xc6, 0x9d, 0x3e, 0x08, 0xc1, 0x92, 0x3d, 0xf4, 0xe0, 0xab, 0x3e,
  0xa4, 0x61, 0x9a, 0x3d, 0xe6, 0x2d, 0xae, 0xbd, 0x1a, 0x18, 0x63, 0x3e,
  0xf7, 0xf1, 0x78, 0xbd, 0xf1, 0xab, 0xb7, 0x3d, 0x57, 0xd3, 0x28, 0xbd,
  0x6b, 0xe4, 0x98, 0x3e, 0x89, 0x25, 0xc6, 0x3d, 0x4f, 0x7c, 0xf0, 0xbd,
  0x73, 0xcf, 0x27, 0x3d, 0x4f, 0x8d, 0x44, 0xbe, 0x91, 0x62, 0x80, 0x3d,
  0xc8, 0x97, 0x77, 0x3e, 0x10, 0x14, 0x93, 0xbd, 0xd4, 0x57, 0xd2, 0xbd,
  0x01, 0xe0, 0xc7, 0xbd, 0xab, 0x59, 0x0e, 0x3e, 0xf9, 0xb1, 0x68, 0xbe,
  0x6e, 0x10, 0xaf, 0xbe, 0x70, 0x14, 0x0a, 0xbe, 0x9b, 0x41, 0x33, 0x3e,
  0xc8, 0x6e, 0x28, 0xbe, 0xc1, 0xab, 0x48, 0xbe, 0x32, 0xa3, 0x1f, 0x3e,
  0xd7, 0x3c, 0x8e, 0x3c, 0x8d, 0xf7, 0xd3, 0x3e, 0x56, 0x60, 0x2a, 0xbe,
  0xb8, 0x8a, 0x82, 0x3e, 0x46, 0x70, 0xa6, 0xbd, 0xc7, 0x3a, 0x44, 0x3e,
  0xfd, 0x8a, 0x02, 0xbc, 0x04, 0x04, 0x3e, 0x3e, 0x59, 0x47, 0xd3, 0x3e,
  0xd3, 0xda, 0x45, 0xbe, 0x8b, 0xb1, 0x20, 0xbe, 0xa0, 0x43, 0xac, 0x3d,
  0x97, 0x3d, 0xf2, 0x3d, 0x30, 0x9f, 0x15, 0xbd, 0x04, 0x7a, 0x61, 0x3e,
  0x94, 0xc3, 0x8c, 0x3e, 0x75, 0x0f, 0x34, 0xbe, 0x34, 0xf4, 0xf9, 0x3d,
  0x51, 0x58, 0xb7, 0x3d, 0xcc, 0x60, 0x9b, 0x3e, 0x36, 0xbf, 0xc2, 0xbe,
  0x45, 0x9e, 0x27, 0xbf, 0x2f, 0x09, 0x92, 0xbd, 0x0f, 0xd2, 0xcb, 0xbd,
  0x86, 0xe9, 0xc6, 0x3e, 0x17, 0xde, 0x0c, 0xbe, 0xcc, 0xc4, 0xe8, 0x3d,
  0xc2, 0x77, 0x96, 0x3c, 0xa5, 0xa2, 0xe5, 0xbd, 0xf2, 0xc8, 0x99, 0xbe,
  0xcd, 0xe0, 0xff, 0xbe, 0x6c, 0x97, 0x94, 0x3e, 0x9a, 0xe7, 0x3f, 0x3e,
  0x78, 0xd2, 0xba, 0xbc, 0xfa, 0x95, 0xff, 0x3d, 0x5c, 0x17, 0x45, 0x3e,
  0x79, 0x86, 0x55, 0xbe, 0x51, 0x6c, 0x41, 0xbe, 0xcb, 0x36, 0xa6, 0xbd,
  0xbd, 0xc6, 0x24, 0xbe, 0x94, 0x8d, 0x1d, 0x3e, 0xeb, 0xf9, 0x14, 0xbc,
  0xd7, 0xe6, 0x2c, 0xbd, 0x11, 0x20, 0x2d, 0x3d, 0x18, 0x9b, 0x37, 0xbe,
  0x8b, 0x38, 0xa0, 0xbd, 0xce, 0x4d, 0x23, 0xbe, 0x7c, 0x6a, 0xf6, 0x3d,
  0x58, 0xe0, 0xbd, 0x3e, 0xe5, 0xb9, 0x0b, 0xbe, 0x3b, 0x89, 0x11, 0xbd,
  0xee, 0xdc, 0x03, 0xbe, 0xed, 0x47, 0x83, 0xbe, 0xa1, 0x68, 0xc7, 0xbe,
  0xb9, 0x7d, 0x71, 0xbb, 0x8d, 0x87, 0xc7, 0xbd, 0x22, 0xe4, 0xfb, 0xbd,
  0x9f, 0x82, 0xae, 0xbc, 0xff, 0x28, 0x28, 0x3e, 0xb1, 0xed, 0x5f, 0xbe,
  0x5b, 0xbb, 0xdc, 0x3d, 0xd1, 0xdb, 0x4b, 0xbd, 0x3d, 0x93, 0x18, 0xbe,
  0x4f, 0xf5, 0xa2, 0xbe, 0x02, 0x50, 0x75, 0x3e, 0x9c, 0x65, 0x95, 0xbe,
  0xf0, 0x31, 0x50, 0xbe, 0xf1, 0x86, 0xb8, 0xbe, 0x75, 0x8e, 0x9e, 0xbe,
  0xa9, 0xfd, 0x9c, 0xbe, 0x25, 0x3d, 0x1d, 0xbd, 0xa7, 0x20, 0x2a, 0xbe,
  0x1f, 0xb5, 0x0b, 0xbf, 0xcc, 0x9c, 0x21, 0x3d, 0xc0, 0x19, 0x83, 0xbd,
  0x43, 0x8b, 0x9c, 0x3d, 0xe4, 0x94, 0x2d, 0xbd, 0xa3, 0x2f, 0x13, 0xbe,
  0x38, 0xad, 0xa3, 0xbe, 0xb2, 0xd2, 0x94, 0xbd, 0x99, 0x0e, 0x6a, 0x3e,
  0x3c, 0xde, 0x22, 0x3e, 0xe6, 0x77, 0x5b, 0xbe, 0xb5, 0x79, 0x23, 0xbe,
  0x55, 0x30, 0x41, 0xbe, 0x6a, 0xa1, 0xa9, 0x3e, 0xdf, 0x5b, 0x24, 0x3d,
  0x11, 0xd1, 0x4b, 0x3d, 0x7a, 0x6d, 0x9f, 0xbd, 0x2a, 0xe9, 0x8b, 0x3d,
  0xb9, 0x15, 0x3f, 0xbd, 0xc0, 0xc8, 0xe7, 0x3d, 0x77, 0x42, 0xf0, 0xbd,
  0x7f, 0x74, 0x00, 0x3d, 0x37, 0x42, 0x45, 0x3e, 0x8a, 0x93, 0x74, 0xbe,
  0xec, 0x68, 0x18, 0xbe, 0x2a, 0xd9, 0xb4, 0xbd, 0xb7, 0x84, 0xa1, 0xbd,
  0xd0, 0xee, 0xf8, 0xbc, 0x86, 0xb8, 0x21, 0x3d, 0xd3, 0xd1, 0x36, 0x3d,
  0x66, 0x10, 0x69, 0xbd, 0xc1, 0x01, 0xbf, 0xbc, 0xfe, 0xa7, 0x1a, 0x3d,
  0x61, 0x59, 0xa8, 0xbd, 0x46, 0x54, 0x85, 0xbe, 0x6a, 0x79, 0x76, 0xbe,
  0x8b, 0x83, 0xc8, 0xbc, 0x3f, 0xcc, 0x9a, 0xbe, 0x79, 0x95, 0x38, 0x3d,
  0x42, 0x61, 0x97, 0x3e, 0xb5, 0x59, 0x37, 0x3d, 0xe4, 0xa3, 0x61, 0x3e,
  0xce, 0x75, 0x5c, 0xbe, 0xe3, 0xc9, 0xb5, 0x3d, 0xc4, 0x94, 0x11, 0xbe,
  0x1d, 0xe4, 0x7d, 0x3e, 0x92, 0xe0, 0x2e, 0xbd, 0xb1, 0x47, 0xf0, 0x3b,
  0xbc, 0x23, 0xad, 0x3e, 0x2b, 0x67, 0x4f, 0xbe, 0xf3, 0x99, 0x82, 0xbe,
  0xa0, 0xab, 0xda, 0xbd, 0x58, 0x69, 0x9f, 0xbd, 0x08, 0x4c, 0x0c, 0xbe,
  0xfd, 0x9f, 0xd1, 0x3c, 0xf6, 0x30, 0xb3, 0x3e, 0x0c, 0xed, 0x3b, 0x3e,
  0x9f, 0x80, 0x2a, 0x3e, 0xba, 0x99, 0x01, 0xbe, 0x26, 0xba, 0xcb, 0x3e,
  0x65, 0xaf, 0x8d, 0xbe, 0x4b, 0x77, 0xb4, 0xbe, 0x31, 0xe4, 0x33, 0xbe,
  0x36, 0x4c, 0x08, 0xbe, 0x34, 0x60, 0x89, 0x3e, 0xfd, 0x74, 0x67, 0xbe,
  0x20, 0xec, 0xbc, 0x3d, 0x25, 0x24, 0x58, 0xbd, 0xba, 0x09, 0x32, 0xbd,
  0xf9, 0xd5, 0x46, 0xbe, 0xa8, 0xcd, 0xd2, 0xbe, 0x24, 0xb2, 0x82, 0x3e,
  0xec, 0xc6, 0xa1, 0x3e, 0x00, 0x0d, 0xe2, 0x3d, 0x27, 0x10, 0x51, 0x3e,
  0x29, 0xec, 0x1a, 0x3e, 0xfd, 0x0a, 0x6c, 0xbe, 0x9f, 0x3b, 0xe3, 0xbd,
  0x11, 0xf4, 0x05, 0xbd, 0xba, 0x2f, 0x6a, 0xbd, 0x64, 0x30, 0x91, 0x3e,
  0x2f, 0x38, 0x8b, 0xbd, 0x9b, 0x53, 0x05, 0x3e, 0x01, 0x86, 0x4b, 0x3c,
  0x66, 0x2a, 0x86, 0xbd, 0xee, 0x1e, 0xe6, 0x3d, 0x2b, 0x17, 0xff, 0x3d,
  0x4a, 0x0e, 0xa6, 0x3e, 0x4a, 0x72, 0x83, 0x3e, 0x76, 0x7d, 0x1c, 0x3e,
  0x22, 0xee, 0xde, 0x3d, 0xb0, 0x92, 0xa7, 0x3d, 0x0c, 0x60, 0xa6, 0xbe,
  0xce, 0xfe, 0x0e, 0xbd, 0xeb, 0x6c, 0xd4, 0x3d, 0x2b, 0x1b, 0x5e, 0xbd,
  0xca, 0xa7, 0x5c, 0x3e, 0xa9, 0xb3, 0xad, 0x3d, 0x29, 0x0f, 0xca, 0xbd,
  0xe9, 0x1e, 0x3a, 0x3d, 0xbe, 0xe6, 0x49, 0xbe, 0x9f, 0x23, 0xcc, 0xbc,
  0xd1, 0x25, 0x25, 0xbe, 0x58, 0xf5, 0x8f, 0x3d, 0xa2, 0x5e, 0xb4, 0x3e,
  0xcd, 0x8c, 0x17, 0x3e, 0xb5, 0x09, 0xae, 0x37, 0xa4, 0xd3, 0xe5, 0xbd,
  0x7b, 0x66, 0x57, 0xbe, 0x63, 0x6c, 0x1c, 0x3e, 0xa5, 0x7f, 0x8a, 0xbd,
  0x71, 0xc5, 0xc6, 0x3c, 0x29, 0x96, 0x8f, 0x3e, 0x6f, 0x29, 0xe2, 0x3d,
  0x73, 0x23, 0x41, 0xbd, 0x0b, 0x16, 0x10, 0x3e, 0x17, 0x2a, 0x2f, 0x3e,
  0xb5, 0x97, 0x6b, 0x3d, 0x7d, 0x8a, 0x7c, 0xbd, 0x40, 0x35, 0xf0, 0x3e,
  0x82, 0xef, 0x47, 0x3e, 0x7c, 0x2d, 0x92, 0x3e, 0xaf, 0x50, 0xf6, 0x3d,
  0xcc, 0x61, 0x17, 0x3e, 0x28, 0xbe, 0x31, 0xbe, 0x89, 0x9b, 0x10, 0xbe,
  0x64, 0x06, 0xe0, 0x3d, 0x1e, 0xf8, 0x19, 0xbe, 0xd4, 0xae, 0xaa, 0x3e,
  0x98, 0x06, 0x32, 0xbe, 0xc6, 0x4c, 0x09, 0x3a, 0x53, 0x3f, 0xec, 0xbc,
  0xe4, 0xc5, 0xc9, 0x3d, 0x96, 0xf3, 0xb4, 0x3d, 0x64, 0x6f, 0x34, 0x3c,
  0xf5, 0xc8, 0x72, 0x3e, 0x09, 0xbd, 0x62, 0x3e, 0xab, 0x14, 0x88, 0xbd,
  0xd9, 0x91, 0xde, 0x3d, 0xa8, 0x71, 0x1e, 0x3c, 0x33, 0x7c, 0xe1, 0xbc,
  0x22, 0xfa, 0xcb, 0xbd, 0x73, 0xdf, 0x7f, 0xbd, 0xcf, 0xb0, 0xbb, 0xbd,
  0xa6, 0x38, 0x91, 0xbd, 0x0b, 0x19, 0x90, 0xbc, 0xe2, 0x32, 0x71, 0xbe,
  0xb0, 0xb0, 0x58, 0x3c, 0x80, 0x5d, 0x55, 0xbe, 0x75, 0x9a, 0x5e, 0xbe,
  0xdc, 0x31, 0x9b, 0xbd, 0xf2, 0x17, 0x00, 0x3e, 0x23, 0xf8, 0xdf, 0x3d,
  0xee, 0x83, 0x6f, 0x3d, 0xde, 0xc7, 0xbf, 0x3e, 0xfa, 0xb6, 0x26, 0xbe,
  0xcc, 0x3b, 0x4e, 0xbc, 0x93, 0x6b, 0xaf, 0xbe, 0x1c, 0x03, 0x9f, 0x3d,
  0x73, 0x6f, 0x82, 0xbe, 0xdb, 0xb0, 0x07, 0xbd, 0xe9, 0xc3, 0xc0, 0x3e,
  0x4d, 0xd1, 0xac, 0x3c, 0x68, 0x9d, 0xc4, 0xbd, 0xd4, 0x91, 0x18, 0x3e,
  0x02, 0xc7, 0x69, 0x3e, 0xcf, 0x11, 0x4b, 0x3c, 0x9a, 0xa6, 0xfe, 0xbc,
  0x4a, 0x04, 0x61, 0xbd, 0xc5, 0xa9, 0xc0, 0x3c, 0xc7, 0xca, 0xa0, 0x3e,
  0x72, 0x67, 0x94, 0xbc, 0xa5, 0x0b, 0x2b, 0x3e, 0xa9, 0xc7, 0x1e, 0xbe,
  0xd0, 0x05, 0xbb, 0xbd, 0x77, 0x63, 0x47, 0x3d, 0x2f, 0x84, 0x35, 0xbd,
  0x5f, 0x70, 0xe6, 0x3d, 0x49, 0xdd, 0x60, 0x3c, 0x12, 0x9b, 0x1a, 0xbd,
  0x2c, 0xe2, 0xd5, 0x3c, 0x7f, 0x47, 0x0d, 0x3e, 0xd9, 0x9d, 0x87, 0xbd,
  0x3b, 0xca, 0xe1, 0x3d, 0xd4, 0x8f, 0xe7, 0x3d, 0x46, 0x50, 0x22, 0xbe,
  0xa4, 0x4a, 0x46, 0x3e, 0x4a, 0xfe, 0x48, 0xbe, 0x48, 0xbc, 0x8a, 0x3e,
  0x80, 0x23, 0x81, 0x3e, 0xd6, 0x21, 0x24, 0xbd, 0x95, 0x9a, 0x82, 0xbe,
  0xb3, 0xbd, 0xea, 0xbd, 0xf3, 0x60, 0xac, 0x3d, 0x40, 0xa7, 0x83, 0x3e,
  0xec, 0xb9, 0x7c, 0xba, 0x40, 0xa0, 0x84, 0xbd, 0xc0, 0x0f, 0x10, 0x3e,
  0xd5, 0xad, 0x18, 0x3e, 0x6f, 0x97, 0xe2, 0x3d, 0x62, 0x67, 0xd4, 0xbc,
  0xdc, 0x89, 0xde, 0x3c, 0xda, 0x21, 0x84, 0x3d, 0xea, 0x1c, 0x17, 0x3d,
  0x62, 0x25, 0xe9, 0xbd, 0x5e, 0x66, 0x52, 0xbd, 0x2c, 0x9d, 0x7a, 0xbe,
  0xef, 0x87, 0x04, 0xbd, 0x3e, 0x71, 0x01, 0xbe, 0x68, 0xb9, 0x1a, 0x3e,
  0x84, 0x5c, 0x35, 0x3e, 0xe4, 0x15, 0xa3, 0x3c, 0xe2, 0xd6, 0xbb, 0xbc,
  0x83, 0x91, 0x39, 0x3e, 0x9a, 0x8e, 0x3e, 0x3e, 0x20, 0xc5, 0xd2, 0x3e,
  0xcb, 0xea, 0x37, 0x3c, 0xb0, 0x11, 0x82, 0xbe, 0x49, 0x4e, 0x21, 0x3e,
  0xbc, 0x65, 0xb2, 0x3c, 0x7f, 0x6c, 0x29, 0x3e, 0xc6, 0x0c, 0xb6, 0x3d,
  0xa2, 0xac, 0x6e, 0xbd, 0x64, 0x30, 0x82, 0xbe, 0xd2, 0x01, 0x71, 0xbe,
  0xd7, 0x47, 0x8f, 0x3e, 0xec, 0x7a, 0xd0, 0xbc, 0x13, 0x6c, 0xa9, 0x3c,
  0x55, 0xb1, 0x49, 0x3e, 0x14, 0xdd, 0x77, 0x3e, 0xfa, 0x21, 0x3a, 0xbe,
  0xd8, 0x97, 0x9b, 0x3d, 0x68, 0x9a, 0xdb, 0xbc, 0x27, 0x88, 0x07, 0x3d,
  0xae, 0x68, 0x35, 0x3d, 0x3a, 0xac, 0x31, 0xbe, 0x08, 0x9e, 0x90, 0xbd,
  0x63, 0x9f, 0x20, 0x3d, 0x26, 0xa3, 0xe5, 0xbd, 0xff, 0xfc, 0xfc, 0xbc,
  0x29, 0x67, 0x50, 0xbd, 0xa8, 0x24, 0xca, 0x3d, 0x10, 0x62, 0x55, 0x3d,
  0xb9, 0x16, 0x15, 0x3e, 0x57, 0x41, 0xb5, 0xbd, 0x1f, 0xef, 0xeb, 0xbb,
  0x07, 0xbc, 0x84, 0xbd, 0x27, 0x1e, 0xfc, 0x3d, 0x4e, 0x4f, 0xfc, 0xbd,
  0xb1, 0x1f, 0xf4, 0x3d, 0x72, 0x5f, 0x1a, 0x3f, 0x0c, 0x47, 0x23, 0x3c,
  0x1d, 0x92, 0x8e, 0xbc, 0xc8, 0x0c, 0x5c, 0xbe, 0xcf, 0x06, 0x6e, 0xbe,
  0xe5, 0xfd, 0x9a, 0xbe, 0xac, 0x0e, 0x5d, 0xbe, 0x59, 0x64, 0x27, 0xbe,
  0xf8, 0x55, 0x05, 0x3e, 0xb8, 0x22, 0xfe, 0x3e, 0xf3, 0x34, 0x00, 0x3e,
  0x68, 0xc7, 0x47, 0x3e, 0x2a, 0xb7, 0xa4, 0xbd, 0xee, 0xa3, 0xef, 0xbd,
  0x6c, 0x83, 0x9b, 0xbd, 0x47, 0x97, 0x05, 0x3d, 0x6c, 0xf3, 0xf6, 0xbd,
  0xfb, 0x64, 0xad, 0xbd, 0x9b, 0x78, 0x3d, 0xbe, 0xae, 0xd4, 0x47, 0x3d,
  0x85, 0xe1, 0x07, 0xbe, 0x78, 0x52, 0x9f, 0xbe, 0x7d, 0x29, 0x96, 0x3d,
  0xb9, 0x84, 0x28, 0x3d, 0x5a, 0x7a, 0x6d, 0xbe, 0x87, 0x24, 0x57, 0xbe,
  0xea, 0x26, 0xc8, 0x3c, 0xa6, 0x3d, 0x6b, 0xbe, 0xab, 0x2c, 0xa3, 0x3d,
  0x40, 0x2f, 0x5e, 0xbc, 0x6f, 0xb7, 0x97, 0x3d, 0x17, 0x07, 0x2a, 0x3e,
  0x51, 0x15, 0x4b, 0x3e, 0x87, 0x65, 0x80, 0x3c, 0x2b, 0x3a, 0x8d, 0xbd,
  0xcc, 0x08, 0x02, 0xbc, 0x32, 0x62, 0x70, 0xbe, 0x0b, 0x67, 0xc1, 0xbe,
  0x37, 0x03, 0x37, 0x3a, 0x01, 0x0d, 0x86, 0xbe, 0xb1, 0x7d, 0x5e, 0xbe,
  0x46, 0xb3, 0x49, 0x3e, 0x82, 0x5a, 0xd5, 0x3d, 0xdd, 0x38, 0x0f, 0x3d,
  0xfe, 0x35, 0x23, 0x3e, 0x4d, 0x10, 0x48, 0xbe, 0xcf, 0x8f, 0xa3, 0x3d,
  0x90, 0xb3, 0x45, 0xbe, 0x8d, 0xa6, 0x14, 0x3e, 0x02, 0xf3, 0x37, 0xbd,
  0xb6, 0x5a, 0x5a, 0xbd, 0xdf, 0x8c, 0x7c, 0x3c, 0x9f, 0x0c, 0x9e, 0x3d,
  0x7a, 0x57, 0x9f, 0xbd, 0xa2, 0xec, 0x13, 0x3e, 0x53, 0x61, 0x7f, 0x3d,
  0xa8, 0x6f, 0xa9, 0xbd, 0x4d, 0xfb, 0xb6, 0x3d, 0x65, 0x19, 0x8b, 0x3d,
  0x34, 0x4c, 0x65, 0xbd, 0xe4, 0xfe, 0x70, 0x3c, 0xec, 0x4e, 0x30, 0x3e,
  0xb0, 0xcb, 0xda, 0x3d, 0x34, 0x5a, 0x23, 0x3c, 0x60, 0x75, 0x05, 0xbe,
  0x81, 0xbd, 0x48, 0x3e, 0x97, 0x72, 0x0e, 0x3c, 0x8d, 0x21, 0x16, 0x3e,
  0x29, 0x48, 0x71, 0xbd, 0x69, 0xde, 0x16, 0xbd, 0x69, 0x5e, 0x35, 0x3e,
  0x5d, 0x9d, 0x1a, 0xbe, 0x48, 0x19, 0x3f, 0xbd, 0x3f, 0xc6, 0x6a, 0xbb,
  0x15, 0x81, 0xe4, 0x3d, 0x05, 0x12, 0x13, 0xbe, 0xfd, 0x14, 0x3c, 0x3e,
  0xe2, 0x8b, 0xb1, 0x3d, 0xe6, 0x7a, 0x02, 0xbe, 0xc1, 0xea, 0x31, 0xbe,
  0x0e, 0x40, 0x24, 0x3e, 0xc4, 0x18, 0x40, 0xbd, 0x73, 0xc6, 0x3a, 0xbd,
  0x8a, 0xb2, 0x7f, 0xbe, 0x40, 0x62, 0x38, 0xbd, 0xdc, 0x6b, 0xc8, 0xbd,
  0x66, 0xa5, 0x21, 0x3e, 0xf6, 0xfc, 0x9d, 0xbe, 0x2a, 0x38, 0x79, 0xbe,
  0xc6, 0xda, 0xa7, 0xbd, 0xbb, 0xcb, 0x83, 0x3d, 0xe0, 0xdd, 0xd7, 0xbd,
  0xc3, 0xe8, 0x6a, 0xbd, 0x42, 0xf6, 0x3b, 0x3d, 0xa7, 0xed, 0x5e, 0xbc,
  0x99, 0x29, 0x3e, 0xbe, 0x59, 0x35, 0xfd, 0x3d, 0x9b, 0x76, 0x5e, 0xbe,
  0xe3, 0xc1, 0x61, 0xbe, 0x9b, 0xff, 0x83, 0xbd, 0xe0, 0xf4, 0xb9, 0xbd,
  0x17, 0x8b, 0xbd, 0xbe, 0xf6, 0x11, 0xbd, 0x3d, 0xfe, 0x83, 0xaf, 0xbd,
  0x26, 0xdb, 0x15, 0xbe, 0xdb, 0xb7, 0x5f, 0x3d, 0x33, 0x9c, 0xf4, 0xbd,
  0x97, 0xfb, 0xaa, 0xbd, 0xdc, 0x95, 0xa8, 0x3d, 0xaa, 0x26, 0x3a, 0x3e,
  0x0f, 0xd6, 0x1f, 0x3e, 0xf7, 0x8c, 0x75, 0xbd, 0x6c, 0xea, 0xaa, 0xbd,
  0x23, 0x4a, 0xcc, 0xbd, 0xba, 0xbb, 0xa6, 0x3c, 0xab, 0xf5, 0x73, 0x3d,
  0x1b, 0xb1, 0x1d, 0xbe, 0xc5, 0xd3, 0x4b, 0xbe, 0x15, 0x56, 0x7e, 0xbb,
  0x3b, 0x54, 0xbe, 0xbd, 0x93, 0x07, 0xe0, 0x3d, 0x47, 0x79, 0x74, 0xbe,
  0x76, 0xf2, 0x11, 0xbe, 0x5c, 0x89, 0x39, 0xbe, 0x18, 0x34, 0x00, 0x3e,
  0x42, 0xaf, 0x49, 0x3d, 0x84, 0x49, 0xa2, 0xbd, 0xe1, 0x19, 0xef, 0xbc,
  0x44, 0xed, 0x6e, 0xbe, 0xaa, 0xd1, 0x96, 0x3e, 0xf1, 0x09, 0xfd, 0xbd,
  0xfb, 0x15, 0x45, 0x3e, 0x06, 0xbf, 0xd5, 0x3d, 0x27, 0x23, 0xc4, 0x3d,
  0x0d, 0xef, 0xce, 0x3d, 0xaf, 0x6c, 0xbd, 0xbc, 0x29, 0x10, 0x0e, 0xbe,
  0x61, 0xf3, 0x11, 0xbc, 0x05, 0x8c, 0x5a, 0x3d, 0xea, 0x12, 0x1b, 0xbe,
  0xf4, 0x64, 0x38, 0x3e, 0x3b, 0xbd, 0x2d, 0x3e, 0x55, 0x0c, 0x4e, 0x3e,
  0xc1, 0xe7, 0x21, 0x3e, 0x0f, 0x68, 0x5f, 0xbd, 0x5e, 0xc1, 0x8d, 0xbd,
  0x97, 0xea, 0x3f, 0xbd, 0x99, 0xd3, 0x13, 0xbd, 0xad, 0xed, 0x27, 0xbc,
  0xf8, 0xde, 0x87, 0xbd, 0x6b, 0xfa, 0x4b, 0x3e, 0x58, 0x0b, 0x3d, 0xbd,
  0xeb, 0x63, 0x1d, 0x3e, 0x46, 0x87, 0x98, 0x3d, 0xaf, 0x8f, 0x31, 0x3e,
  0xef, 0xc4, 0xc1, 0xbd, 0xdf, 0xa9, 0x9c, 0xbd, 0x0c, 0xd5, 0x4a, 0x3e,
  0x09, 0x40, 0x91, 0x3d, 0xe9, 0x74, 0x83, 0xbe, 0xdc, 0xa2, 0xf2, 0xbc,
  0xba, 0xd4, 0xc2, 0xbd, 0xb0, 0x11, 0x65, 0xbd, 0xdc, 0x23, 0x3d, 0x3d,
  0x96, 0x62, 0x1b, 0xbd, 0x5d, 0x55, 0xe9, 0xbd, 0xfc, 0xd4, 0xc7, 0x3d,
  0xff, 0xfa, 0x3b, 0x3d, 0x96, 0xe5, 0x8f, 0xbe, 0x50, 0xf8, 0xe6, 0xbd,
  0x16, 0x20, 0x4d, 0xbe, 0xa8, 0x9b, 0x20, 0x3e, 0x8f, 0xc6, 0x4d, 0x3e,
  0xaa, 0x20, 0x29, 0x3c, 0x45, 0x7e, 0x03, 0x3e, 0x71, 0x9e, 0xa3, 0x3d,
  0xd1, 0x95, 0x06, 0x3e, 0x70, 0xbf, 0x6c, 0xbd, 0x21, 0x7c, 0x6a, 0xbe,
  0xac, 0x71, 0x5c, 0x3e, 0x16, 0x10, 0xfd, 0xbd, 0xd2, 0xba, 0x4e, 0xbd,
  0xe6, 0x3a, 0x8c, 0x3e, 0xfd, 0x99, 0x86, 0xbd, 0xb1, 0x95, 0x2c, 0x3d,
  0xee, 0xab, 0x3e, 0xbe, 0x70, 0x73, 0x0b, 0xbd, 0x0c, 0x65, 0xc3, 0x3d,
  0xdf, 0xc5, 0x0a, 0x3c, 0xbd, 0x96, 0x31, 0xbe, 0x4f, 0xe4, 0x4e, 0xbe,
  0x49, 0xf2, 0x1c, 0x3e, 0xa1, 0x00, 0x0e, 0x3e, 0x23, 0x96, 0x35, 0xbe,
  0x8c, 0xe9, 0xaf, 0x3c, 0x80, 0xbc, 0x95, 0xbd, 0xa0, 0xee, 0xdb, 0x3d,
  0x47, 0x8e, 0x5e, 0xbe, 0x1c, 0x21, 0x20, 0xbe, 0x5d, 0xb6, 0xef, 0xbd,
  0x3c, 0x24, 0x83, 0xbe, 0x9d, 0xe2, 0xf8, 0xbd, 0x1d, 0xf8, 0x90, 0x3d,
  0x34, 0x98, 0x4f, 0xbc, 0x9f, 0xf6, 0x7d, 0xbe, 0xa7, 0xae, 0x81, 0xbc,
  0x05, 0xc8, 0x20, 0x3e, 0x60, 0xbd, 0xfa, 0x3b, 0x05, 0x42, 0xaf, 0x3c,
  0x74, 0xee, 0x62, 0xbe, 0xbf, 0xdc, 0xa7, 0x3d, 0xaa, 0x95, 0x15, 0x3e,
  0xe5, 0x66, 0x35, 0x3e, 0x06, 0x79, 0x8b, 0xbe, 0xde, 0x82, 0x21, 0xbd,
  0xad, 0xda, 0x1a, 0xbc, 0x59, 0x1d, 0x39, 0xbe, 0x2c, 0x82, 0xb4, 0xbd,
  0x60, 0x4c, 0x06, 0x3e, 0xab, 0x88, 0xfb, 0xbd, 0xaf, 0x32, 0x0b, 0x3d,
  0x15, 0x11, 0x0b, 0x3d, 0xce, 0x0a, 0x67, 0x3d, 0x31, 0x96, 0x09, 0x3d,
  0x5f, 0x9e, 0xb8, 0xbc, 0xc4, 0xd7, 0x92, 0xbd, 0x0c, 0x35, 0x56, 0x3c,
  0xb1, 0xbf, 0xaa, 0xbd, 0xe4, 0xe4, 0x30, 0xbe, 0xa2, 0x82, 0x29, 0xbd,
  0xa4, 0x77, 0xdb, 0xbb, 0x40, 0x1c, 0x2c, 0xbe, 0x8c, 0xc9, 0xbc, 0xbd,
  0xa1, 0x6e, 0x89, 0xbd, 0x62, 0x7b, 0xca, 0x3d, 0x18, 0x44, 0xb0, 0x3d,
  0x0d, 0xdd, 0x77, 0x3e, 0x45, 0xaf, 0x52, 0x3d, 0x86, 0xf3, 0x8e, 0xbe,
  0x3c, 0x16, 0x97, 0xbb, 0x43, 0x9e, 0x3b, 0xbe, 0xc3, 0xd1, 0xe2, 0x3d,
  0x4f, 0x29, 0x98, 0xbe, 0xa3, 0x75, 0x57, 0xb9, 0x23, 0xb5, 0x51, 0xbe,
  0x63, 0xba, 0x4e, 0xbe, 0x5c, 0x94, 0x81, 0xbd, 0xf6, 0xce, 0x94, 0xbd,
  0x0d, 0x71, 0xef, 0xbd, 0xda, 0xb4, 0x5b, 0xbd, 0xc2, 0x75, 0xbc, 0x3d,
  0x9e, 0x3f, 0x3f, 0xbe, 0x80, 0x43, 0xfa, 0xbd, 0xa7, 0xf7, 0xe7, 0x3c,
  0x20, 0x8b, 0xb1, 0xbd, 0x33, 0xfa, 0x60, 0x3e, 0xc4, 0x52, 0x4a, 0x3e,
  0x96, 0xa0, 0xf6, 0x3d, 0x49, 0x41, 0x37, 0xbe, 0x63, 0x9e, 0x10, 0xbd,
  0x6e, 0x56, 0x35, 0x3c, 0xd5, 0xa5, 0xff, 0xbd, 0x03, 0x56, 0x2b, 0x3e,
  0x92, 0x97, 0x43, 0xbe, 0xc4, 0x12, 0x87, 0x3d, 0x42, 0xef, 0x5b, 0x3e,
  0x53, 0xad, 0x21, 0xbe, 0xa7, 0xdd, 0xac, 0x3c, 0xb8, 0xdd, 0x5e, 0xbd,
  0x9b, 0xe1, 0x63, 0x3e, 0xe2, 0x42, 0x87, 0x3e, 0x18, 0x0e, 0x57, 0xbe,
  0xe3, 0xb6, 0x45, 0x3d, 0x24, 0xc7, 0xca, 0xbd, 0xcb, 0xf8, 0x12, 0xbd,
  0x11, 0x6e, 0x4e, 0x3e, 0xee, 0xf4, 0x33, 0xbc, 0x68, 0xa9, 0xbb, 0xbb,
  0x0a, 0xc2, 0x73, 0x3e, 0xcd, 0x6b, 0xbc, 0xbd, 0x81, 0xfc, 0x76, 0xbd,
  0x13, 0x12, 0xbb, 0x3d, 0x04, 0x53, 0x4b, 0xbe, 0x65, 0x01, 0x3d, 0xbe,
  0x37, 0x00, 0x8c, 0x3d, 0xf9, 0x89, 0x1f, 0x3e, 0x12, 0x27, 0xf9, 0x3d,
  0x67, 0x4c, 0xba, 0x3d, 0x56, 0x8f, 0xf1, 0xbd, 0xf3, 0xc2, 0x6c, 0x3d,
  0xd8, 0x76, 0x5e, 0xbe, 0xb5, 0xc3, 0x12, 0x3e, 0xc0, 0xc0, 0xb2, 0xbd,
  0x4a, 0x7a, 0x29, 0x3e, 0x7e, 0x60, 0x0e, 0x3e, 0x83, 0x4b, 0x0b, 0xbe,
  0x48, 0x38, 0x61, 0xbe, 0x55, 0x91, 0xa4, 0x3c, 0x6e, 0x72, 0xdf, 0xbd,
  0x64, 0x06, 0xf2, 0x3c, 0xd9, 0x30, 0x41, 0x3d, 0x4c, 0x7e, 0x8b, 0x3d,
  0x89, 0x7f, 0xa7, 0xbd, 0x55, 0xed, 0xb9, 0x3e, 0x4d, 0x1d, 0x09, 0xbd,
  0x70, 0xf5, 0xbd, 0x3e, 0xcf, 0xf9, 0x6a, 0xbd, 0x4a, 0x7e, 0x25, 0xbe,
  0x96, 0x4e, 0x04, 0xbe, 0x02, 0xce, 0x1c, 0xbe, 0x87, 0x99, 0x8c, 0x3e,
  0xc2, 0x6f, 0x86, 0xbe, 0x7a, 0xfa, 0x62, 0x3e, 0xa5, 0x72, 0x15, 0x3e,
  0xda, 0x5c, 0xcc, 0xbd, 0x7d, 0x8a, 0x9d, 0xbd, 0x1c, 0xf9, 0x4e, 0xbe,
  0xa5, 0xb4, 0x15, 0x3e, 0xa0, 0x51, 0x89, 0x3e, 0x01, 0xf3, 0xb8, 0x3d,
  0x76, 0x0a, 0x69, 0xbe, 0x01, 0xfd, 0x1f, 0x3e, 0x91, 0x64, 0xd4, 0xbd,
  0x5e, 0x5d, 0x8e, 0xbe, 0x08, 0xe0, 0x2b, 0xbe, 0x89, 0xd4, 0x54, 0xbe,
  0x0c, 0xb6, 0x2a, 0x3e, 0x10, 0xd3, 0x9b, 0xbd, 0x7e, 0x09, 0x3f, 0x3e,
  0x18, 0xca, 0x9d, 0x3d, 0x27, 0xbb, 0x52, 0x3e, 0x15, 0x68, 0x6e, 0xbe,
  0x27, 0x05, 0xfa, 0xbd, 0x2a, 0x43, 0xe7, 0x3d, 0xfe, 0x10, 0xbd, 0x3e,
  0x0a, 0x98, 0x77, 0xbe, 0x41, 0x05, 0x05, 0x3d, 0x77, 0xd4, 0x7b, 0xbd,
  0x07, 0x67, 0x04, 0xbe, 0xe5, 0xa5, 0x43, 0x3c, 0x2d, 0x1b, 0xe4, 0x3d,
  0x14, 0xd5, 0x0c, 0xbd, 0xdb, 0x11, 0xe5, 0xbd, 0x33, 0xaf, 0xf5, 0xbc,
  0x37, 0x9a, 0x90, 0xbd, 0x0b, 0x37, 0x5b, 0xbd, 0x4c, 0xd8, 0xbc, 0x3d,
  0x73, 0xf5, 0x3c, 0x3e, 0xd8, 0xef, 0x01, 0x3e, 0x39, 0xee, 0xc0, 0xbd,
  0x47, 0xb9, 0xb2, 0x3d, 0xa5, 0x79, 0xd0, 0xbe, 0x8e, 0xba, 0xa7, 0x3e,
  0xa5, 0xb3, 0x2b, 0xbf, 0x0c, 0xa5, 0x6c, 0xbd, 0x16, 0x60, 0x80, 0xbe,
  0x3b, 0x43, 0x7c, 0x3e, 0xdd, 0xd5, 0xe2, 0xbd, 0xb3, 0xd1, 0xd0, 0xbe,
  0x94, 0x97, 0x99, 0x3e, 0xeb, 0x0a, 0x1a, 0x3e, 0x7f, 0x36, 0x1f, 0xbf,
  0x5a, 0x75, 0xc1, 0xbd, 0xf5, 0x56, 0x98, 0x3e, 0xf2, 0x8b, 0x5e, 0xbe,
  0xc6, 0x86, 0xb7, 0xbe, 0x48, 0xfa, 0x2c, 0xbe, 0xdf, 0x69, 0xe2, 0x3b,
  0xe0, 0x91, 0xe8, 0x3e, 0xd4, 0xae, 0x0d, 0xbf, 0x2c, 0x3a, 0x91, 0x3d,
  0x20, 0xc3, 0x15, 0x3f, 0xdd, 0xb7, 0x0d, 0x3e, 0x4f, 0x8d, 0x87, 0x3b,
  0xa5, 0x0a, 0xd1, 0xbe, 0xcd, 0xa1, 0x76, 0x3e, 0x1b, 0xdc, 0xe3, 0x3d,
  0x9b, 0xd6, 0x29, 0xbf, 0xd6, 0xa0, 0xa1, 0x3c, 0x65, 0x3a, 0xdd, 0xbb,
  0x7c, 0x96, 0xdd, 0x3e, 0xa5, 0xa9, 0xe8, 0xbe, 0x21, 0xda, 0xa0, 0xbd,
  0xeb, 0xd6, 0xbe, 0xbe, 0x7c, 0x52, 0x07, 0x3f, 0xb9, 0x0f, 0x1c, 0xbf,
  0xe3, 0xce, 0x7d, 0xbd, 0xca, 0xd0, 0x24, 0x3e, 0x48, 0x15, 0xb7, 0x3d,
  0xab, 0x79, 0x1b, 0x3d, 0x04, 0x4f, 0x9f, 0xbe, 0x50, 0x9f, 0xb0, 0xbc,
  0xc9, 0xf1, 0x4c, 0x3e, 0x5b, 0x78, 0x38, 0xbf, 0xa1, 0x21, 0x34, 0x3d,
  0xb7, 0xf4, 0xce, 0x3d, 0x2f, 0x17, 0x9c, 0x3e, 0x4d, 0x55, 0x11, 0x3d,
  0xcf, 0x27, 0xf7, 0xbc, 0x39, 0x3b, 0x4a, 0xbe, 0x12, 0x06, 0x5b, 0x3d,
  0xd6, 0x96, 0x1b, 0xbf, 0x0b, 0x52, 0x50, 0x3d, 0xd8, 0x6a, 0xf1, 0xbc,
  0xb4, 0x31, 0xbd, 0xbd, 0x0e, 0x28, 0x8d, 0x3d, 0x73, 0xa2, 0xac, 0xbe,
  0x60, 0xbc, 0x35, 0x3d, 0xa3, 0x3b, 0x03, 0x3e, 0xf7, 0xf4, 0x28, 0xbf,
  0x96, 0xc0, 0xac, 0x3d, 0x4a, 0x19, 0x80, 0x3e, 0x20, 0xd2, 0xda, 0xbb,
  0x08, 0x53, 0x45, 0xbe, 0xc2, 0x75, 0x2f, 0xbe, 0x6f, 0x8c, 0x23, 0xbe,
  0xfe, 0x21, 0x12, 0x3f, 0x01, 0x07, 0xa9, 0xbe, 0xcd, 0x85, 0x3e, 0x3e,
  0xcd, 0xef, 0xd2, 0xbd, 0x34, 0x18, 0xcf, 0xbd, 0x5d, 0x13, 0x54, 0x3d,
  0x49, 0x75, 0x69, 0xbe, 0xef, 0x3e, 0xb1, 0x3d, 0x61, 0x29, 0x65, 0x3e,
  0x5b, 0xa7, 0x13, 0xbf, 0x1f, 0x40, 0x44, 0x3e, 0x95, 0xd9, 0xbb, 0x3e,
  0x9a, 0x54, 0x59, 0xbc, 0xd7, 0x35, 0x87, 0xbe, 0x75, 0x24, 0xa7, 0xbe,
  0xc1, 0xa6, 0x72, 0xbe, 0xf8, 0xb0, 0x85, 0x3e, 0x76, 0x7d, 0xe7, 0xbd,
  0x6f, 0xee, 0xc7, 0xbd, 0xbb, 0x7c, 0xd2, 0xbd, 0x70, 0xd1, 0x0f, 0xbe,
  0x01, 0x47, 0x43, 0x3d, 0x36, 0x92, 0x14, 0xbe, 0xfe, 0xb6, 0xa2, 0x3d,
  0x46, 0x52, 0xdd, 0xbd, 0x46, 0x0d, 0x13, 0xbf, 0xc1, 0x1f, 0x51, 0x3e,
  0x78, 0xbf, 0x07, 0x3e, 0x63, 0xf7, 0x4f, 0x3d, 0x81, 0x55, 0x1c, 0xbe,
  0xc3, 0x72, 0xa2, 0xbe, 0xfc, 0xe3, 0x9a, 0x3e, 0x93, 0x56, 0xd2, 0x3e,
  0xdb, 0x01, 0xcb, 0x3c, 0xc9, 0x3a, 0x07, 0xbd, 0xce, 0x53, 0x68, 0xbd,
  0xad, 0x17, 0x8d, 0xbd, 0x5a, 0x68, 0xbb, 0xbd, 0xc5, 0xb8, 0xd4, 0xbd,
  0x42, 0x36, 0x63, 0x3e, 0x85, 0xf3, 0x6e, 0x3e, 0xf7, 0x35, 0x03, 0x3f,
  0x5a, 0x12, 0x48, 0xbd, 0x4b, 0x9e, 0xcb, 0xbd, 0x40, 0xf6, 0x1e, 0xbd,
  0xee, 0xc7, 0x17, 0xbe, 0x44, 0x69, 0x0f, 0x3e, 0x01, 0x88, 0xbc, 0xbe,
  0x3b, 0x81, 0x14, 0x3f, 0x74, 0x4f, 0x81, 0xbe, 0x52, 0x85, 0xa8, 0x3d,
  0x77, 0x63, 0x11, 0xbe, 0x43, 0x93, 0x88, 0x3e, 0x60, 0x07, 0x86, 0xbe,
  0x61, 0x79, 0xd6, 0xbd, 0x78, 0x01, 0xba, 0x3e, 0x6c, 0x09, 0x83, 0x3d,
  0x30, 0xad, 0x68, 0xbe, 0x2e, 0x6a, 0xa0, 0x3c, 0x41, 0x53, 0xb0, 0x3e,
  0x96, 0xe7, 0xf4, 0xbd, 0x1c, 0x16, 0x8c, 0xbd, 0x36, 0x69, 0x2e, 0x3d,
  0x50, 0x87, 0xc6, 0x3d, 0xd4, 0xe3, 0x08, 0x3f, 0xe1, 0xd8, 0x76, 0xbe,
  0x10, 0x75, 0x96, 0x3d, 0x64, 0x00, 0xfb, 0x3d, 0x4b, 0xb4, 0xca, 0x3d,
  0x1b, 0xa7, 0x1e, 0xbe, 0x1a, 0x2f, 0x33, 0xbe, 0x40, 0x30, 0x43, 0x3e,
  0xbc, 0x7a, 0x05, 0xbe, 0xda, 0x6d, 0xd6, 0xbd, 0xbe, 0x80, 0x4b, 0x3e,
  0xe1, 0x24, 0xc5, 0x3e, 0xfb, 0xd4, 0x95, 0x3e, 0x3e, 0x77, 0x10, 0xbe,
  0xd9, 0xa3, 0x72, 0x3d, 0xdd, 0xc2, 0x84, 0xbc, 0x78, 0xf0, 0xb1, 0x3e,
  0x30, 0x3a, 0x4a, 0xbe, 0x8b, 0xfb, 0xb7, 0x3d, 0xc5, 0xc4, 0x0a, 0x3e,
  0x4f, 0x27, 0x6e, 0x3e, 0xd8, 0x8d, 0x4a, 0xbd, 0xc1, 0x44, 0x8d, 0x3d,
  0xd3, 0xc7, 0x86, 0xbc, 0x68, 0x7f, 0x81, 0x3e, 0xaa, 0x11, 0x29, 0xbe,
  0x31, 0xf3, 0x8c, 0x3d, 0x19, 0x66, 0xcb, 0x3e, 0xbe, 0xaa, 0xdf, 0x3c,
  0xec, 0xc0, 0xc1, 0xbd, 0x2a, 0x7d, 0x09, 0x3e, 0xc8, 0xb8, 0x86, 0xbe,
  0xe4, 0x51, 0x51, 0x3e, 0x01, 0x5f, 0x67, 0xbc, 0x22, 0xca, 0x25, 0x3c,
  0x45, 0x83, 0x44, 0x3e, 0xdc, 0x21, 0xe4, 0x3d, 0x7e, 0x37, 0x8e, 0xbd,
  0x50, 0x4a, 0xb2, 0xbd, 0xb0, 0x45, 0x0c, 0x3e, 0xad, 0x4d, 0x62, 0x3e,
  0x76, 0x1c, 0x73, 0xbd, 0x57, 0x03, 0x39, 0x3d, 0xb3, 0xa7, 0x9f, 0x3e,
  0x2d, 0xf5, 0x56, 0xbe, 0xbd, 0x43, 0x41, 0x3e, 0x35, 0xe4, 0x0e, 0xbe,
  0xfe, 0xb4, 0x93, 0x39, 0xed, 0x39, 0xb2, 0x3e, 0xd1, 0x60, 0xd5, 0xbb,
  0x44, 0xff, 0x56, 0x3e, 0xe1, 0x95, 0xd2, 0xbd, 0xe6, 0x7f, 0x40, 0x3e,
  0xd3, 0xd5, 0x72, 0x3d, 0x19, 0xde, 0x17, 0xbe, 0x53, 0xfc, 0x0c, 0x3c,
  0x4b, 0x2f, 0xec, 0x3c, 0x36, 0x62, 0x83, 0xbe, 0xc0, 0x11, 0xc0, 0x3d,
  0x6c, 0xc3, 0x1a, 0x3e, 0xff, 0x73, 0x8e, 0x3e, 0x32, 0xaf, 0xf4, 0xbd,
  0xfe, 0x5a, 0x2c, 0x3d, 0x64, 0x1b, 0xa1, 0xbe, 0x0a, 0xab, 0xb1, 0x3e,
  0x87, 0x15, 0xa7, 0xbe, 0xe9, 0x22, 0x09, 0x3e, 0x0e, 0x6b, 0x10, 0xbe,
  0xa5, 0xbe, 0x04, 0xbe, 0x41, 0x19, 0x54, 0xbd, 0x13, 0x8a, 0x41, 0xbe,
  0x9c, 0xb3, 0x30, 0x3e, 0x61, 0x5c, 0x44, 0x3b, 0xe4, 0x37, 0x45, 0xbc,
  0x42, 0x49, 0x0b, 0xbe, 0x83, 0x3b, 0xb8, 0x3e, 0xde, 0x39, 0x16, 0xbd,
  0xdf, 0x20, 0xed, 0x3d, 0x40, 0x88, 0x10, 0xbe, 0x6a, 0xc8, 0xd7, 0x3e,
  0xa0, 0x83, 0x86, 0x3e, 0x2f, 0xff, 0xcb, 0xbd, 0x71, 0xd4, 0x16, 0x3d,
  0xe0, 0x9b, 0xa9, 0xb9, 0x74, 0x6f, 0x99, 0xbd, 0xfa, 0x39, 0x48, 0xbe,
  0x59, 0x2f, 0x8c, 0xbe, 0x02, 0x8f, 0x4a, 0x3d, 0x13, 0x84, 0xc4, 0x3d,
  0x6e, 0x61, 0x54, 0x3e, 0x8c, 0x4b, 0xd6, 0xbd, 0xbc, 0x3b, 0x91, 0x3d,
  0x3e, 0x52, 0x32, 0x3e, 0x6c, 0x6a, 0xf8, 0x3d, 0x07, 0x6f, 0x86, 0x3c,
  0x9d, 0xc3, 0x93, 0x3c, 0xa8, 0xee, 0xa0, 0x3d, 0xee, 0x71, 0x00, 0xbd,
  0xd5, 0xfc, 0xd2, 0xbd, 0x3f, 0x97, 0x1d, 0xbe, 0x5d, 0xa0, 0x1d, 0xbe,
  0xb1, 0x7b, 0x15, 0xbe, 0x1b, 0x43, 0x02, 0x3e, 0xd9, 0x12, 0xd9, 0xbd,
  0x4a, 0x57, 0x5e, 0xbd, 0x5f, 0xb9, 0x28, 0x3e, 0x7a, 0x67, 0x65, 0x3d,
  0x33, 0xf7, 0x19, 0xbe, 0x63, 0xf1, 0x58, 0xbe, 0x89, 0x4d, 0xd5, 0x3d,
  0x66, 0x5d, 0xd7, 0x3d, 0x30, 0x1b, 0x82, 0xbd, 0xbe, 0xf1, 0xa0, 0x3d,
  0x5b, 0x7e, 0x4e, 0x3e, 0x8f, 0xfe, 0x12, 0xbe, 0x30, 0x02, 0xf6, 0xbd,
  0x1a, 0xe8, 0x89, 0x3d, 0xa4, 0x4e, 0xc2, 0xbd, 0x4a, 0xfc, 0xcf, 0x3d,
  0xe8, 0x0c, 0x6f, 0xbe, 0x49, 0x63, 0xfb, 0xbd, 0x00, 0xf1, 0x68, 0x3c,
  0xc6, 0xfb, 0xf8, 0xbd, 0x19, 0x35, 0xf3, 0xbd, 0x56, 0x34, 0xe5, 0xbd,
  0x6a, 0x2c, 0x3b, 0x3e, 0x07, 0x72, 0x6a, 0x3e, 0x28, 0x99, 0x47, 0xbe,
  0x8a, 0x23, 0x6a, 0xbe, 0x95, 0x6d, 0x66, 0xbd, 0x97, 0x90, 0x5c, 0xbe,
  0x5d, 0x92, 0xd9, 0x3d, 0xd8, 0x36, 0x8f, 0xbe, 0xfc, 0x53, 0x67, 0xbd,
  0x62, 0x32, 0x0a, 0x3e, 0xda, 0xb0, 0x04, 0xbe, 0x95, 0xef, 0x87, 0xbe,
  0x70, 0x8c, 0x1c, 0x3c, 0x4f, 0x88, 0xea, 0x3d, 0x10, 0xc1, 0x8b, 0xbe,
  0x3e, 0x91, 0x9f, 0xbd, 0x5f, 0xca, 0x46, 0x3c, 0x4a, 0x16, 0x51, 0xbe,
  0xbd, 0x83, 0x7a, 0xbe, 0xe9, 0x5d, 0x18, 0xbd, 0x26, 0xbb, 0x81, 0x3d,
  0x45, 0xde, 0xba, 0xbc, 0x4b, 0x17, 0xd7, 0x3d, 0x57, 0x47, 0x94, 0xbe,
  0x35, 0x59, 0x60, 0xbe, 0x3b, 0xcd, 0x2c, 0xbd, 0x8c, 0xed, 0xf2, 0xbd,
  0x47, 0x64, 0xed, 0x3c, 0x5e, 0x00, 0x8a, 0x3d, 0xc4, 0xca, 0xa6, 0x3d,
  0x81, 0x9e, 0x84, 0xbe, 0x35, 0xde, 0x2f, 0xbe, 0xf0, 0xe7, 0x28, 0x3e,
  0xbd, 0x49, 0x07, 0x3e, 0xf0, 0x1d, 0x3b, 0xbe, 0x20, 0x09, 0xe2, 0x3d,
  0xa4, 0xdb, 0x24, 0x3d, 0x54, 0x75, 0x86, 0xbe, 0x7a, 0x24, 0x80, 0x3e,
  0x3e, 0x70, 0xe4, 0xbc, 0x3d, 0x00, 0xbf, 0xbd, 0x05, 0x77, 0xa0, 0x3d,
  0x0f, 0x5e, 0x9d, 0xbe, 0xd1, 0x86, 0x9e, 0x3d, 0x00, 0x2b, 0x58, 0x3c,
  0x1f, 0xb7, 0xe4, 0xbd, 0x17, 0x7a, 0xd0, 0xbd, 0xbe, 0x1a, 0x14, 0xbe,
  0x0b, 0x4a, 0x2f, 0x3c, 0xa0, 0xd9, 0x33, 0xbe, 0x1d, 0x26, 0x26, 0x3d,
  0x51, 0xde, 0x0c, 0xbe, 0xbf, 0x7f, 0x50, 0xbd, 0x08, 0x87, 0x60, 0x3d,
  0xf8, 0xb2, 0xc7, 0xbd, 0x71, 0x41, 0x31, 0xbd, 0x8e, 0xff, 0xcc, 0xbc,
  0xae, 0xe3, 0xb6, 0xbd, 0x10, 0x80, 0x2c, 0xbe, 0x8b, 0xcb, 0x3b, 0xbe,
  0xb7, 0x87, 0x02, 0x3e, 0xe5, 0xe0, 0x18, 0xbd, 0x97, 0x39, 0x38, 0x3c,
  0xb1, 0x75, 0xa1, 0xbc, 0xed, 0x61, 0xae, 0x3e, 0x1e, 0x20, 0xf1, 0xbd,
  0x49, 0xb3, 0x80, 0xbd, 0xfa, 0xba, 0x4e, 0xbe, 0x1b, 0xc8, 0x51, 0xbd,
  0xe7, 0x82, 0xf9, 0xbc, 0x5a, 0x44, 0xeb, 0xbd, 0xcf, 0x70, 0x37, 0xbe,
  0x86, 0xbf, 0x8d, 0xbd, 0xa4, 0x7a, 0x19, 0xbe, 0xc7, 0xc0, 0x44, 0xbe,
  0x43, 0xf3, 0xc1, 0xbc, 0x55, 0x6b, 0x5f, 0x3c, 0xca, 0x43, 0x2f, 0x3e,
  0x6d, 0xd8, 0x62, 0xbe, 0xb0, 0xd2, 0x4b, 0xbe, 0x14, 0x34, 0xef, 0x3c,
  0x49, 0xef, 0xa4, 0xbe, 0x04, 0x62, 0x30, 0xbe, 0x92, 0xf6, 0xe6, 0xbd,
  0x8c, 0xc0, 0x08, 0xbf, 0xb8, 0xa1, 0x39, 0xbe, 0x56, 0x97, 0x22, 0xbe,
  0x42, 0xb0, 0x9f, 0xbe, 0xfe, 0x25, 0xa7, 0xbe, 0x49, 0xdf, 0xbe, 0xbe,
  0xfb, 0x43, 0x56, 0xbe, 0x43, 0x4d, 0x6e, 0xbe, 0xe9, 0x6b, 0x20, 0xbe,
  0x74, 0xa7, 0x6e, 0xbd, 0x2b, 0x60, 0x99, 0xbe, 0x90, 0x46, 0x9e, 0xbe,
  0x1e, 0x6b, 0x8b, 0xbe, 0x63, 0x08, 0xb1, 0x3e, 0x66, 0xa4, 0x48, 0xbe,
  0xf5, 0x85, 0xff, 0x3d, 0x76, 0x26, 0xcd, 0xbe, 0xe8, 0xd4, 0x15, 0xbe,
  0xea, 0xf8, 0xb6, 0x3e, 0x37, 0x50, 0x9d, 0x3d, 0x43, 0xda, 0xc6, 0xbd,
  0x5d, 0xed, 0xb0, 0xbe, 0xb8, 0xb1, 0xb9, 0xbe, 0xac, 0x45, 0x13, 0xbe,
  0xf9, 0xfc, 0xe2, 0xbb, 0x07, 0x61, 0x99, 0x3c, 0xb2, 0xb1, 0x4b, 0xbe,
  0x8f, 0x86, 0x83, 0x3d, 0x3c, 0x26, 0x58, 0xbc, 0x56, 0x52, 0x9f, 0x3c,
  0xd2, 0x2f, 0xac, 0x3d, 0x31, 0x71, 0x83, 0xbd, 0x42, 0x04, 0xd8, 0x3e,
  0x40, 0x73, 0x8a, 0xbe, 0xf6, 0xea, 0xb4, 0x3d, 0x92, 0xfa, 0xf2, 0x3c,
  0xa3, 0xaf, 0xe5, 0xbc, 0x5f, 0xde, 0xe8, 0x3d, 0x83, 0xc2, 0x82, 0xbe,
  0x57, 0x37, 0x97, 0x3d, 0x82, 0x8e, 0x92, 0xbd, 0xf3, 0x9a, 0xad, 0x3d,
  0x36, 0x42, 0xac, 0xbd, 0x3f, 0xd1, 0xe4, 0x3d, 0x84, 0x19, 0x5f, 0xbd,
  0x36, 0x87, 0x40, 0xbd, 0xad, 0xe7, 0x9d, 0xbd, 0x42, 0xd5, 0x4c, 0xbc,
  0x64, 0x5a, 0x9c, 0x3e, 0x5c, 0xd5, 0x33, 0xbe, 0x7e, 0xbb, 0xa3, 0xbd,
  0xa8, 0xf7, 0x09, 0xbd, 0xae, 0x62, 0xe8, 0xbd, 0x48, 0xf1, 0x8b, 0x3e,
  0xcb, 0x95, 0x34, 0xbe, 0x94, 0x20, 0xbf, 0xbd, 0x2d, 0x43, 0x55, 0xbd,
  0x61, 0x36, 0xb7, 0xba, 0xea, 0x9f, 0x70, 0xbe, 0x66, 0x76, 0xa8, 0x3d,
  0x76, 0x25, 0x84, 0x3e, 0xa5, 0x49, 0x64, 0x3e, 0x1c, 0x7b, 0x87, 0x3e,
  0xda, 0x70, 0xf3, 0xbd, 0x15, 0x27, 0x80, 0x3e, 0xb3, 0xdc, 0x99, 0xbd,
  0x11, 0x5a, 0xc0, 0xbe, 0xef, 0x29, 0x94, 0xbd, 0xdb, 0x87, 0x47, 0xbe,
  0xcb, 0xac, 0x4c, 0x3d, 0xfc, 0x9d, 0x96, 0xbe, 0x12, 0x57, 0xb8, 0xbd,
  0xc3, 0x64, 0xb9, 0x3c, 0xfc, 0x69, 0x10, 0x3e, 0x27, 0x4a, 0x3c, 0xbe,
  0xa7, 0x3f, 0x60, 0xbe, 0xf4, 0xfa, 0x83, 0x3e, 0xd2, 0xad, 0x13, 0x3f,
  0x82, 0xde, 0x46, 0x3e, 0xad, 0x76, 0x1f, 0xbe, 0x9b, 0xb6, 0x63, 0x3e,
  0x99, 0x15, 0xde, 0xbd, 0x19, 0x7c, 0x3b, 0x3d, 0x13, 0x3d, 0x13, 0x3e,
  0xbd, 0x16, 0x11, 0xbe, 0xa6, 0x21, 0x8d, 0x3e, 0xfc, 0x95, 0x53, 0xbe,
  0x7b, 0x96, 0x81, 0xbd, 0xb3, 0x79, 0xe7, 0xbd, 0x64, 0x6e, 0x58, 0xbe,
  0xb2, 0x85, 0xa9, 0xbd, 0x8a, 0x58, 0x06, 0xbe, 0xf0, 0x51, 0xc8, 0x3e,
  0xc1, 0x18, 0x1c, 0x3e, 0x75, 0x09, 0x14, 0xbe, 0x53, 0xf7, 0x36, 0xbe,
  0x48, 0x75, 0x86, 0xbd, 0x24, 0xba, 0x85, 0x3d, 0x8b, 0x22, 0xb9, 0x3d,
  0x3f, 0x70, 0xa2, 0x3c, 0x2e, 0xd1, 0x0c, 0x3e, 0x61, 0x8d, 0xcf, 0x3d,
  0x60, 0x53, 0x7a, 0xbe, 0x2b, 0x09, 0x54, 0xbe, 0x0c, 0x33, 0x06, 0xbf,
  0x6b, 0x11, 0x2a, 0xbe, 0x93, 0xe6, 0x50, 0x3e, 0x9c, 0x6b, 0x80, 0xbc,
  0xed, 0x30, 0xb2, 0x3e, 0xbb, 0x9d, 0xb0, 0x3d, 0x3c, 0xa3, 0x03, 0xbe,
  0xae, 0xc3, 0xaa, 0x3d, 0x08, 0x89, 0xd7, 0xbd, 0xf6, 0x7c, 0xae, 0xbd,
  0xda, 0x94, 0xb1, 0xbe, 0x3d, 0x92, 0x7a, 0x3d, 0x27, 0x16, 0xab, 0xbd,
  0x4f, 0xce, 0x90, 0xbd, 0x42, 0x6d, 0x95, 0x3e, 0x9c, 0x68, 0x32, 0xbd,
  0xb7, 0x57, 0x31, 0x3e, 0xa1, 0x61, 0x1a, 0x3e, 0xc8, 0x1d, 0xd2, 0x3d,
  0xe4, 0x49, 0x24, 0x3e, 0xe1, 0xd9, 0x2e, 0x3d, 0xdd, 0xda, 0x68, 0x3e,
  0x50, 0xe0, 0x2b, 0x3e, 0x90, 0x96, 0x69, 0x3e, 0x6f, 0x00, 0x48, 0xbe,
  0x75, 0xe1, 0x19, 0xbc, 0x93, 0x89, 0xe6, 0x3d, 0x78, 0xf9, 0xd6, 0xbd,
  0x46, 0xb5, 0x3d, 0xbe, 0x0d, 0xa4, 0xb7, 0xbd, 0xb7, 0x80, 0x48, 0x3e,
  0x49, 0xdb, 0x74, 0x3e, 0x0b, 0x3e, 0x43, 0x3c, 0x8b, 0xcf, 0x75, 0x3c,
  0x15, 0x43, 0x7f, 0x3e, 0x7f, 0x2a, 0x39, 0xbe, 0x30, 0x96, 0x4c, 0x3e,
  0x32, 0xad, 0x97, 0xbc, 0x75, 0x94, 0x63, 0xbc, 0xc4, 0x8c, 0xec, 0x3d,
  0xe2, 0xe7, 0xab, 0x3d, 0xfb, 0x8f, 0x0f, 0x3e, 0x1a, 0x9d, 0xad, 0x3c,
  0x14, 0xc1, 0xaa, 0x3e, 0x19, 0xc7, 0xe0, 0xbd, 0x91, 0x38, 0x7b, 0xbd,
  0x2d, 0x68, 0xe5, 0xbd, 0xaf, 0x3a, 0x8c, 0x3e, 0x8d, 0x1c, 0x0d, 0xbe,
  0xf9, 0x7f, 0x27, 0x3e, 0x63, 0x96, 0x9f, 0x3d, 0xcd, 0x90, 0xf7, 0xbd,
  0x92, 0x98, 0x38, 0x3e, 0x5b, 0x13, 0xb7, 0xbd, 0xeb, 0x2b, 0x98, 0x3d,
  0x5c, 0x68, 0x64, 0x3d, 0x2a, 0xa3, 0x58, 0xbe, 0x3d, 0xb5, 0x7b, 0xbd,
  0x2e, 0x9b, 0x5d, 0x3e, 0x8f, 0xd4, 0x2f, 0x3e, 0xc8, 0xfb, 0x5f, 0xbe,
  0x7e, 0xd4, 0x47, 0xbe, 0x70, 0x3e, 0x06, 0x3e, 0x98, 0x56, 0x4a, 0xbd,
  0xae, 0x08, 0xa6, 0xbc, 0x18, 0xb3, 0xcb, 0x3d, 0xd3, 0x51, 0x8f, 0x3d,
  0xa6, 0x57, 0x60, 0x3d, 0x0f, 0x10, 0x44, 0xbd, 0x76, 0x45, 0xa2, 0xba,
  0x6f, 0x28, 0x30, 0xbe, 0xa9, 0x3f, 0x52, 0x3e, 0x49, 0xd1, 0xca, 0x3c,
  0xe2, 0x1b, 0xe7, 0x3c, 0xab, 0xd4, 0xd0, 0xbd, 0x65, 0x15, 0x8c, 0x3d,
  0x05, 0x9a, 0x75, 0xbe, 0x19, 0xc1, 0xd8, 0x3d, 0xfe, 0x1b, 0xf7, 0xbd,
  0xe6, 0x2d, 0x06, 0x3e, 0xf4, 0x58, 0x12, 0x3e, 0x96, 0x7f, 0x25, 0x3e,
  0x2d, 0xad, 0xb5, 0xbd, 0xa3, 0x86, 0x39, 0xbe, 0x77, 0x5c, 0xa0, 0x3d,
  0x3b, 0x62, 0xe7, 0x3c, 0x86, 0x23, 0x66, 0xbe, 0x23, 0x88, 0x98, 0xbd,
  0x87, 0xab, 0xad, 0x3d, 0x28, 0x72, 0x0a, 0x3d, 0xc0, 0xe3, 0x0f, 0xbe,
  0x22, 0x78, 0x15, 0xbe, 0x18, 0x61, 0xda, 0xbd, 0x5b, 0x0a, 0xca, 0x3d,
  0xd6, 0x8e, 0x18, 0xbe, 0x5a, 0xe0, 0xb6, 0x3d, 0xfc, 0x73, 0x30, 0xbe,
  0xd0, 0x28, 0x46, 0x3d, 0x68, 0xa9, 0xf1, 0x3d, 0x23, 0x2c, 0xf2, 0xbb,
  0xe4, 0xc3, 0x64, 0x3d, 0xba, 0xdd, 0x8d, 0x3d, 0xd0, 0xb6, 0xa3, 0x3d,
  0xed, 0xfa, 0x4a, 0x3e, 0xf3, 0xd1, 0x17, 0xbd, 0xab, 0x7d, 0xe2, 0xbc,
  0x2b, 0xd7, 0xb5, 0x3d, 0x4f, 0xf5, 0x1d, 0x3e, 0xab, 0xc0, 0xc4, 0xbe,
  0xae, 0x72, 0x4f, 0x3c, 0x29, 0x09, 0x10, 0x3d, 0x08, 0xb2, 0x5c, 0x3e,
  0xd5, 0x53, 0xb4, 0x3e, 0xe3, 0x07, 0xc1, 0xbd, 0xec, 0xdf, 0x04, 0x3e,
  0xa5, 0xf8, 0xf0, 0x3d, 0x45, 0x50, 0x66, 0xbd, 0x71, 0x71, 0xdf, 0x3d,
  0x17, 0xe5, 0xf4, 0x3e, 0x74, 0xe6, 0x19, 0xbe, 0x94, 0x8b, 0x6f, 0x3e,
  0x96, 0x8b, 0x8c, 0x3c, 0x46, 0xd1, 0x1c, 0x3d, 0x5b, 0xe1, 0x94, 0xbe,
  0xf3, 0x0a, 0x8d, 0x3d, 0x5e, 0x3d, 0x9c, 0x3e, 0xa9, 0x4b, 0x33, 0xbe,
  0x90, 0xcc, 0x34, 0xbe, 0x6b, 0x61, 0x2c, 0xbe, 0xff, 0x1a, 0xc6, 0x3a,
  0x85, 0x73, 0x9f, 0xbd, 0xb2, 0x3e, 0xe3, 0xbd, 0xa1, 0x0a, 0x91, 0x3e,
  0x08, 0x8b, 0xf9, 0x3e, 0x31, 0xd0, 0x7a, 0x3e, 0x79, 0x7c, 0x9b, 0xbe,
  0xb2, 0xd3, 0x85, 0x3e, 0xd0, 0x0d, 0x84, 0xbe, 0x85, 0x8a, 0x3b, 0xbd,
  0x6f, 0x85, 0x5c, 0xbe, 0xad, 0x64, 0x9f, 0xbc, 0x22, 0xe4, 0xb7, 0x3d,
  0x56, 0xb2, 0x11, 0xbe, 0x31, 0x65, 0xf1, 0xbd, 0xaa, 0x11, 0xe4, 0xbd,
  0x75, 0x25, 0x79, 0xbd, 0x0b, 0x6d, 0xfb, 0xbd, 0x54, 0x98, 0x40, 0xbe,
  0x34, 0xe6, 0xec, 0x3e, 0x21, 0x06, 0x6c, 0x3e, 0x4d, 0xd9, 0x60, 0xbd,
  0xbf, 0xe3, 0xb3, 0xbd, 0xf3, 0x92, 0x40, 0x3e, 0xda, 0x05, 0xab, 0xbe,
  0x22, 0xe0, 0x7d, 0xbc, 0xcb, 0x33, 0x7b, 0xbb, 0xd0, 0x5b, 0x50, 0x3d,
  0x8c, 0xad, 0xb7, 0x3e, 0xd5, 0x48, 0x4e, 0xbe, 0x58, 0x48, 0x09, 0xbd,
  0x3e, 0xc4, 0x22, 0xbe, 0xd3, 0x3f, 0x62, 0x3c, 0x1f, 0x7f, 0xf4, 0x3c,
  0xc7, 0x72, 0x01, 0x3c, 0x43, 0xfc, 0x40, 0x3e, 0x5b, 0x0d, 0x88, 0x3e,
  0xfc, 0xda, 0x69, 0x3e, 0xae, 0x90, 0x11, 0xbe, 0x8c, 0x15, 0x48, 0x3e,
  0x1a, 0xd0, 0x9b, 0xbe, 0x81, 0x55, 0x1c, 0xbe, 0x33, 0x52, 0x21, 0x3d,
  0x20, 0x67, 0xc6, 0xbc, 0xce, 0xa4, 0x19, 0x3e, 0x21, 0x3d, 0x14, 0xbd,
  0xb2, 0x3a, 0x6a, 0x3e, 0x8d, 0xc3, 0x49, 0xbd, 0x7e, 0x67, 0x7a, 0x3d,
  0xea, 0x41, 0x33, 0x3e, 0x5f, 0xb3, 0x36, 0xbe, 0xb0, 0x48, 0x26, 0x3e,
  0xd4, 0xbb, 0x96, 0xbd, 0x81, 0x0d, 0xce, 0x3c, 0x06, 0xad, 0x28, 0xbe,
  0x78, 0x2c, 0xa7, 0xbb, 0xd2, 0x8e, 0x94, 0xbe, 0xe7, 0x55, 0x80, 0xbe,
  0xa5, 0x7d, 0x6b, 0xbd, 0x0e, 0x8f, 0x75, 0xbd, 0x3f, 0xf2, 0x5d, 0x3e,
  0x39, 0x82, 0x88, 0xbb, 0x9e, 0x24, 0x09, 0x3e, 0x50, 0x1b, 0x51, 0xbd,
  0xd2, 0xe2, 0xfa, 0xbd, 0xcc, 0x1f, 0x1b, 0xbe, 0x56, 0x7e, 0xe2, 0xbe,
  0xa5, 0x0c, 0x82, 0x3e, 0xd5, 0x4c, 0x02, 0x3f, 0x8c, 0x22, 0x88, 0xbd,
  0x95, 0x06, 0x4c, 0xbe, 0xf0, 0xed, 0x59, 0xbd, 0x75, 0x87, 0x70, 0xbe,
  0x9a, 0x02, 0x31, 0xbe, 0xec, 0xef, 0xbb, 0xbd, 0x75, 0x38, 0x37, 0xbe,
  0x37, 0xd0, 0x6b, 0xbe, 0x71, 0x8b, 0x95, 0xbd, 0x76, 0xd3, 0xd9, 0xbd,
  0xd1, 0x78, 0x73, 0xbe, 0x9c, 0x8e, 0xa1, 0x3d, 0x9d, 0x50, 0x46, 0xbe,
  0x6c, 0x5a, 0x2c, 0xbe, 0xac, 0x67, 0x63, 0x3e, 0x9e, 0x07, 0x2b, 0x3e,
  0x77, 0x1b, 0x09, 0xbe, 0x2c, 0xa9, 0xb7, 0xbd, 0x06, 0x7e, 0x0f, 0xbd,
  0x63, 0xf2, 0x63, 0xbe, 0x5d, 0xfc, 0x36, 0x3e, 0xa6, 0x6e, 0xae, 0x3d,
  0x28, 0xf3, 0x50, 0x3d, 0x29, 0x74, 0xd1, 0xbd, 0xa0, 0x54, 0xb4, 0xbc,
  0xfe, 0xe8, 0x00, 0x3e, 0x2b, 0xb3, 0x27, 0xbe, 0xbd, 0x46, 0x7e, 0xbc,
  0x8d, 0x6e, 0x04, 0x3e, 0x2b, 0x10, 0xa6, 0x3e, 0x90, 0xe2, 0xdf, 0xbc,
  0xc7, 0xef, 0x4d, 0xbe, 0x5c, 0x80, 0x3a, 0xbd, 0x87, 0x52, 0x0d, 0xbe,
  0x45, 0xe9, 0xea, 0xbd, 0x5c, 0xe3, 0xe1, 0xbd, 0x04, 0x98, 0xe1, 0x3c,
  0x56, 0x42, 0xa6, 0xbe, 0xb5, 0x7b, 0x1b, 0xbe, 0x3b, 0x8e, 0x3b, 0xbe,
  0x76, 0x2c, 0xc0, 0xbd, 0xc2, 0x64, 0xc1, 0xbd, 0xe1, 0xe0, 0x90, 0x3d,
  0xb2, 0x32, 0xdb, 0x3d, 0x04, 0x60, 0xdf, 0xbc, 0x7d, 0x90, 0xd6, 0x3d,
  0xd2, 0xbb, 0xa9, 0xbd, 0x06, 0xca, 0x14, 0x3e, 0x1b, 0x9a, 0x7d, 0x3d,
  0x7c, 0x08, 0xb5, 0x3c, 0x73, 0x4b, 0x2e, 0xbe, 0x8f, 0xfb, 0xc4, 0xbd,
  0x36, 0x9a, 0x82, 0xbe, 0xd3, 0xb0, 0x5f, 0xbe, 0x49, 0xac, 0xe3, 0xbd,
  0x4a, 0x62, 0xf6, 0xbd, 0x02, 0x6c, 0x83, 0xbe, 0x49, 0xb0, 0x8d, 0xbe,
  0xcb, 0xb9, 0x2b, 0x3d, 0xf5, 0xa3, 0x02, 0xbe, 0xf1, 0x10, 0x29, 0xbe,
  0x94, 0x8d, 0x92, 0x3b, 0xf8, 0xbf, 0xa1, 0xbd, 0xd6, 0xf3, 0xc4, 0x3d,
  0xca, 0xc4, 0x8d, 0xbd, 0x51, 0x35, 0x47, 0x3d, 0x30, 0x97, 0x31, 0xbe,
  0x9c, 0x4e, 0x0e, 0xbe, 0x58, 0x8e, 0x42, 0xbe, 0xaf, 0x7a, 0x89, 0xbe,
  0x75, 0x93, 0x87, 0xbd, 0x58, 0x56, 0x0c, 0x3e, 0xce, 0x50, 0x71, 0xbe,
  0x2a, 0xac, 0x81, 0xbd, 0xbc, 0x6d, 0xbd, 0x3d, 0x73, 0x5d, 0xe4, 0x3d,
  0x15, 0x1a, 0x00, 0xbe, 0x21, 0x22, 0x11, 0x3e, 0xdb, 0xcf, 0x31, 0xbe,
  0xf2, 0x87, 0x94, 0x3b, 0xcb, 0x4e, 0x00, 0xbe, 0x95, 0x19, 0x39, 0xbe,
  0x8c, 0x97, 0xf7, 0xbc, 0xc4, 0xa2, 0x60, 0xbe, 0xa7, 0x69, 0x92, 0x3e,
  0xd0, 0x4a, 0xe4, 0xbc, 0x5f, 0xdf, 0xd5, 0xbc, 0x0d, 0x84, 0xfc, 0xbd,
  0x7a, 0xc9, 0x8d, 0xbe, 0x24, 0x77, 0xce, 0xbe, 0x16, 0x63, 0x31, 0x3e,
  0x05, 0xe9, 0x93, 0x3d, 0x41, 0x79, 0x23, 0xbe, 0x16, 0xa1, 0x26, 0x3d,
  0xd1, 0xc3, 0xeb, 0xbd, 0xd9, 0x40, 0xfc, 0xbd, 0x8a, 0x3f, 0x9e, 0x3d,
  0x9c, 0xab, 0xcb, 0xbd, 0x05, 0x17, 0xc3, 0x3e, 0x05, 0x40, 0x15, 0xbe,
  0xfd, 0x32, 0x50, 0x3d, 0x4a, 0x9e, 0x55, 0xbd, 0x8b, 0x33, 0x35, 0x3e,
  0x17, 0x34, 0x05, 0x3e, 0x0f, 0xcc, 0x3e, 0xbe, 0xbf, 0x9b, 0xdd, 0xbd,
  0xd5, 0x4c, 0x5d, 0x3d, 0xcc, 0x26, 0x7b, 0xbd, 0x6f, 0x09, 0x61, 0x3d,
  0x68, 0xc9, 0x53, 0xbe, 0xfc, 0x66, 0x02, 0xbd, 0xdf, 0xc7, 0x8f, 0xbc,
  0xec, 0xcb, 0x94, 0x3e, 0x07, 0xfe, 0x13, 0x3d, 0xab, 0x02, 0x89, 0x3e,
  0x78, 0xf2, 0xed, 0xbd, 0xa4, 0x8b, 0x9a, 0x3c, 0x82, 0x57, 0xa3, 0xbd,
  0x3a, 0x0c, 0x0f, 0xbd, 0xc9, 0x6b, 0x07, 0x3e, 0x88, 0xde, 0x62, 0xbe,
  0x7e, 0x43, 0x43, 0xbd, 0xa7, 0x20, 0x0a, 0xbe, 0xaa, 0x93, 0xa4, 0xbd,
  0x80, 0xfe, 0x41, 0x3d, 0xb6, 0xb7, 0x31, 0x3c, 0xb7, 0x4a, 0x96, 0x3e,
  0xec, 0x7e, 0xc6, 0x3e, 0x2e, 0x2c, 0x08, 0xbe, 0xed, 0x2d, 0x25, 0x3a,
  0x6f, 0x0e, 0x00, 0xbe, 0x07, 0x34, 0x01, 0x3e, 0xb0, 0x1a, 0xc3, 0x3d,
  0x57, 0xf4, 0xa7, 0xbd, 0xda, 0x74, 0xc7, 0xbd, 0x98, 0x93, 0xc6, 0xbd,
  0xbe, 0x7e, 0xae, 0xbd, 0xe0, 0x91, 0xe8, 0x3d, 0x53, 0x63, 0x93, 0xbe,
  0xff, 0xe1, 0x56, 0x3c, 0xda, 0xfd, 0x1a, 0x3e, 0xc6, 0x16, 0x89, 0x3e,
  0x4d, 0x2d, 0x91, 0x3d, 0x4e, 0xfe, 0xff, 0xff, 0x10, 0x00, 0x00, 0x00,
  0x05, 0x00, 0x00, 0x00, 0x14, 0x00, 0x00, 0x00, 0x2c, 0x00, 0x00, 0x00,
  0x02, 0x00, 0x00, 0x00, 0x10, 0x00, 0x00, 0x00, 0x70, 0x00, 0x00, 0x00,
  0x17, 0x00, 0x00, 0x00, 0x73, 0x65, 0x71, 0x75, 0x65, 0x6e, 0x74, 0x69,
  0x61, 0x6c, 0x2f, 0x64, 0x65, 0x6e, 0x73, 0x65, 0x2f, 0x4d, 0x61, 0x74,
  0x4d, 0x75, 0x6c, 0x00, 0x3c, 0xfe, 0xff, 0xff, 0x32, 0xff, 0xff, 0xff,
  0x04, 0x00, 0x00, 0x00, 0x08, 0x00, 0x00, 0x00, 0xff, 0xff, 0xff, 0xff,
  0x70, 0x00, 0x00, 0x00, 0x00, 0x00, 0x0e, 0x00, 0x18, 0x00, 0x08, 0x00,
  0x07, 0x00, 0x0c, 0x00, 0x10, 0x00, 0x14, 0x00, 0x0e, 0x00, 0x00, 0x00,
  0x00, 0x00, 0x00, 0x02, 0x10, 0x00, 0x00, 0x00, 0x04, 0x00, 0x00, 0x00,
  0x10, 0x00, 0x00, 0x00, 0x2c, 0x00, 0x00, 0x00, 0x01, 0x00, 0x00, 0x00,
  0x02, 0x00, 0x00, 0x00, 0x18, 0x00, 0x00, 0x00, 0x73, 0x65, 0x71, 0x75,
  0x65, 0x6e, 0x74, 0x69, 0x61, 0x6c, 0x2f, 0x66, 0x6c, 0x61, 0x74, 0x74,
  0x65, 0x6e, 0x2f, 0x43, 0x6f, 0x6e, 0x73, 0x74, 0x00, 0x00, 0x00, 0x00,
  0xa4, 0xfe, 0xff, 0xff, 0x9a, 0xff, 0xff, 0xff, 0x04, 0x00, 0x00, 0x00,
  0x08, 0x00, 0x00, 0x00, 0x97, 0xa8, 0x30, 0xc0, 0x97, 0xa8, 0x30, 0x40,
  0x0a, 0xff, 0xff, 0xff, 0x10, 0x00, 0x00, 0x00, 0x03, 0x00, 0x00, 0x00,
  0x10, 0x00, 0x00, 0x00, 0x3c, 0x00, 0x00, 0x00, 0x01, 0x00, 0x00, 0x00,
  0x02, 0x00, 0x00, 0x00, 0x29, 0x00, 0x00, 0x00, 0x73, 0x65, 0x71, 0x75,
  0x65, 0x6e, 0x74, 0x69, 0x61, 0x6c, 0x2f, 0x64, 0x65, 0x6e, 0x73, 0x65,
  0x5f, 0x31, 0x2f, 0x42, 0x69, 0x61, 0x73, 0x41, 0x64, 0x64, 0x2f, 0x52,
  0x65, 0x61, 0x64, 0x56, 0x61, 0x72, 0x69, 0x61, 0x62, 0x6c, 0x65, 0x4f,
  0x70, 0x00, 0x00, 0x00, 0x60, 0xff, 0xff, 0xff, 0x00, 0x00, 0x06, 0x00,
  0x08, 0x00, 0x04, 0x00, 0x06, 0x00, 0x00, 0x00, 0x04, 0x00, 0x00, 0x00,
  0x40, 0x00, 0x00, 0x00, 0xa3, 0x06, 0x5b, 0x3e, 0xb6, 0xd3, 0x16, 0xbe,
  0x12, 0x22, 0x47, 0xbf, 0xe4, 0x19, 0x05, 0xc0, 0xda, 0x2c, 0xbc, 0xbf,
  0x19, 0xba, 0x58, 0xbe, 0xc7, 0x6f, 0x75, 0xbe, 0x75, 0xdd, 0x83, 0xbe,
  0xc7, 0x75, 0x0c, 0xbf, 0x95, 0x5e, 0x04, 0x40, 0xd2, 0xe8, 0x0b, 0x3e,
  0xed, 0xbc, 0xa8, 0xbe, 0xc1, 0xf5, 0xf4, 0xbf, 0x32, 0x97, 0x19, 0xbe,
  0xa2, 0x20, 0xce, 0xbf, 0x4d, 0x1a, 0xcb, 0xbe, 0xae, 0xff, 0xff, 0xff,
  0x10, 0x00, 0x00, 0x00, 0x02, 0x00, 0x00, 0x00, 0x10, 0x00, 0x00, 0x00,
  0x3c, 0x00, 0x00, 0x00, 0x01, 0x00, 0x00, 0x00, 0x10, 0x00, 0x00, 0x00,
  0x27, 0x00, 0x00, 0x00, 0x73, 0x65, 0x71, 0x75, 0x65, 0x6e, 0x74, 0x69,
  0x61, 0x6c, 0x2f, 0x64, 0x65, 0x6e, 0x73, 0x65, 0x2f, 0x42, 0x69, 0x61,
  0x73, 0x41, 0x64, 0x64, 0x2f, 0x52, 0x65, 0x61, 0x64, 0x56, 0x61, 0x72,
  0x69, 0x61, 0x62, 0x6c, 0x65, 0x4f, 0x70, 0x00, 0x04, 0x00, 0x06, 0x00,
  0x04, 0x00, 0x00, 0x00, 0x00, 0x00, 0x0e, 0x00, 0x14, 0x00, 0x04, 0x00,
  0x00, 0x00, 0x08, 0x00, 0x0c, 0x00, 0x10, 0x00, 0x0e, 0x00, 0x00, 0x00,
  0x10, 0x00, 0x00, 0x00, 0x01, 0x00, 0x00, 0x00, 0x1c, 0x00, 0x00, 0x00,
  0x2c, 0x00, 0x00, 0x00, 0x04, 0x00, 0x00, 0x00, 0x01, 0x00, 0x00, 0x00,
  0x40, 0x00, 0x00, 0x00, 0x03, 0x00, 0x00, 0x00, 0x01, 0x00, 0x00, 0x00,
  0x0c, 0x00, 0x00, 0x00, 0x63, 0x6f, 0x6e, 0x76, 0x32, 0x64, 0x5f, 0x69,
  0x6e, 0x70, 0x75, 0x74, 0x00, 0x00, 0x00, 0x00, 0xfc, 0xff, 0xff, 0xff,
  0x04, 0x00, 0x04, 0x00, 0x04, 0x00, 0x00, 0x00




  // Paste the data of the char array in `src/model.cc` here

};


unsigned int model_tflite_len = 12316;// Fill the int in `src/model.cc` here